<unk>	0
<s>	0
</s>	0
.	-2.53319
,	-2.90494
▁	-3.73308
요	-4.40771
을	-4.47458
가	-4.52611
?,	-4.54792
.,	-4.62388
도	-4.69367
이	-4.90157
는	-4.9353
게	-4.99196
▁거예요	-5.00236
은	-5.04343
고	-5.13378
를	-5.16301
지	-5.23762
▁수	-5.39356
보세요	-5.41874
의	-5.43039
세요	-5.43469
네요	-5.45585
▁너무	-5.58598
▁좋아하는	-5.65588
▁거	-5.66055
서	-5.72601
▁것	-5.75309
한	-5.76309
▁사람	-5.77706
▁안	-5.80532
▁더	-5.80578
▁나	-5.82842
에	-5.88329
면	-5.91275
죠	-5.98582
봐요	-6.01902
▁잘	-6.0403
히	-6.07083
만	-6.0948
▁같아요	-6.12034
해보세요	-6.12663
▁사람이	-6.14625
랑	-6.16193
▁있어요	-6.1717
▁싶어	-6.1806
▁있을	-6.18542
▁게	-6.19548
으로	-6.20908
▁좀	-6.22372
로	-6.23767
나	-6.24137
▁없어	-6.2426
▁때	-6.2822
▁같아	-6.29919
▁많이	-6.34747
▁이별	-6.35872
▁썸	-6.367
▁사랑	-6.37437
▁내	-6.37952
하고	-6.41127
길	-6.4277
▁마세요	-6.43815
다	-6.4528
▁건	-6.45977
할	-6.49527
▁말	-6.50519
▁생각	-6.50968
네	-6.5125
!	-6.52202
▁다	-6.53503
▁있는	-6.57884
에서	-6.61167
▁마음	-6.61706
▁내가	-6.61843
▁해보세요	-6.62713
▁왜	-6.63742
좋은	-6.64904
▁있	-6.65759
일	-6.65979
▁좋은	-6.6671
이에요	-6.69583
▁남자친구	-6.69894
▁오늘	-6.70632
▁싶다	-6.70886
▁어떻게	-6.71556
▁그	-6.72875
그	-6.76262
잘	-6.78188
▁여자친구	-6.78715
어	-6.80242
▁있어	-6.80977
▁좋을	-6.82449
▁않아	-6.82976
▁수도	-6.83785
하는	-6.83881
▁가	-6.83926
▁걸	-6.83982
▁하는	-6.85248
겠어요	-6.85797
니다	-6.87113
▁연락	-6.87426
▁연애	-6.87435
▁뭐	-6.88
▁해	-6.88363
▁다시	-6.90748
야	-6.9109
에요	-6.92341
▁여자	-6.92859
▁좋아	-6.92934
는데	-6.94399
▁이제	-6.94846
▁또	-6.95339
▁될	-6.95482
으면	-6.9647
▁것도	-6.96499
▁일	-6.96728
▁못	-6.97382
▁시간이	-6.9779
▁하고	-6.98752
▁친구	-6.98841
기	-6.98981
어요	-6.99208
하세요	-7.01782
▁자꾸	-7.03644
많이	-7.0384
▁할	-7.05439
인데	-7.05837
?	-7.06055
사랑	-7.06069
▁일이	-7.065
▁바	-7.06582
년	-7.06615
▁정말	-7.07057
가봐요	-7.08972
▁바랄게요	-7.09472
든	-7.09706
과	-7.10634
▁한	-7.11052
해	-7.11175
▁마음이	-7.11467
저	-7.12161
▁돼요	-7.1249
▁헤어진지	-7.13786
저도	-7.15508
는게	-7.16906
▁있을까	-7.17511
인	-7.17668
하지	-7.18337
거	-7.185
한테	-7.1861
▁만나	-7.18667
▁아니	-7.1907
▁없는	-7.19736
하게	-7.20402
▁다른	-7.20694
거예요	-7.21456
▁진짜	-7.21502
더	-7.2156
▁선물	-7.23293
▁될까	-7.23846
▁이	-7.24882
보다	-7.26131
▁좋아요	-7.26497
라	-7.26537
랍	-7.26986
▁힘들	-7.27879
▁짝녀	-7.28019
▁시간	-7.28876
▁살	-7.30137
▁남자	-7.30161
주세요	-7.30215
▁방법	-7.31367
▁없	-7.31419
▁좋죠	-7.32023
라고	-7.32323
▁드세요	-7.32451
니까	-7.32617
데	-7.32633
▁하나	-7.33014
하면	-7.33782
▁먹고	-7.33809
운	-7.34528
▁같이	-7.34742
▁하세요	-7.36171
제가	-7.36202
마음이	-7.3738
씩	-7.37675
▁사	-7.37683
지금	-7.37918
던	-7.37944
▁조금	-7.38205
마음	-7.38923
▁날	-7.39999
상	-7.40258
▁계속	-7.40943
▁참	-7.41354
▁하지	-7.41629
▁몰라	-7.42038
니	-7.42782
▁힘들어	-7.43114
당신	-7.44038
▁혼자	-7.44148
그런	-7.45009
다고	-7.45183
▁이야기	-7.45623
다른	-7.458
나봐	-7.45831
▁중	-7.46114
▁생각해요	-7.46512
▁전	-7.46624
▁사랑이	-7.46683
▁준비	-7.46801
▁데이트	-7.49289
▁애	-7.49396
▁해요	-7.50459
자신	-7.50848
▁생각해	-7.51071
이제	-7.52103
까	-7.52283
▁짝남이	-7.52509
▁줄	-7.52638
▁있나	-7.52658
해도	-7.53355
까지	-7.53692
▁할까	-7.54312
▁먼저	-7.55521
지도	-7.55563
▁짝사랑	-7.55936
나를	-7.565
봅니다	-7.5709
▁힘든	-7.57573
에게	-7.57685
▁들어	-7.5802
▁힘드네	-7.58344
▁말해보세요	-7.58391
▁술	-7.58452
▁보세요	-7.58557
▁보고	-7.59577
대로	-7.59879
래	-7.60159
와	-7.6059
▁결혼	-7.60933
입니다	-7.62094
▁좋겠	-7.62448
지만	-7.6256
▁이렇게	-7.62816
▁짝남	-7.62912
▁너	-7.63213
▁싫어	-7.6326
예요	-7.63509
▁어떨까요	-7.64876
▁나만	-7.6511
▁2	-7.65397
해주세요	-7.65535
▁하	-7.65759
▁1	-7.66211
해요	-7.66794
▁있는데	-7.66794
서로	-7.66869
너무	-7.67253
▁하면	-7.67262
▁듯	-7.67597
▁좋겠어	-7.68118
▁그냥	-7.6819
대	-7.68816
▁후	-7.69136
심	-7.69877
했어	-7.70045
천	-7.70213
▁3	-7.70516
▁타는	-7.70802
▁돼	-7.71124
▁카톡	-7.71613
▁안돼	-7.71872
진	-7.7236
겠죠	-7.72465
수	-7.72771
▁눈	-7.72891
혼자	-7.73182
합니다	-7.73293
▁사람은	-7.74089
▁말고	-7.74428
▁헤어진	-7.74668
▁자신	-7.74932
▁주세요	-7.7547
생각	-7.7569
항	-7.7594
▁아	-7.76284
자	-7.76396
▁아무	-7.76812
▁하루	-7.77214
▁관심	-7.7783
▁싶은	-7.77947
▁해도	-7.78587
사람	-7.78706
▁많아	-7.78795
좋겠어요	-7.79129
질	-7.79667
른	-7.80069
▁따라	-7.80349
▁만큼	-7.80435
▁않는	-7.8046
▁같은데	-7.80892
▁곳	-7.81584
▁머리	-7.81874
▁많은	-7.81926
긴	-7.82069
▁시작	-7.82103
▁올	-7.82366
부터	-7.82526
▁감정	-7.82675
▁저	-7.82871
▁좋겠다	-7.82992
▁않	-7.83726
▁그럴	-7.83939
▁연락이	-7.84119
▁나한테	-7.8434
할까	-7.84429
▁모르겠어	-7.84496
▁알	-7.84694
▁돈	-7.84729
▁오래	-7.85175
▁가고	-7.85393
▁해야	-7.85395
▁친구가	-7.85659
▁사랑하는	-7.85752
▁바라요	-7.85826
▁찾아	-7.8628
▁만날	-7.86568
같이	-7.87123
▁보	-7.87333
▁쉬	-7.87433
자고	-7.87564
▁도움	-7.87874
점	-7.8816
아	-7.88178
려	-7.88179
▁않을	-7.88487
금	-7.89216
▁그녀	-7.8933
▁반	-7.89809
▁이유	-7.90432
▁고민	-7.90889
▁함께	-7.9098
조금	-7.91092
거라	-7.91151
건	-7.91166
인지	-7.91359
해서	-7.91843
▁지금	-7.92227
이죠	-7.92291
▁여행	-7.92702
충분	-7.93222
▁대화	-7.9327
자기	-7.93952
주	-7.94753
▁무슨	-7.94939
거나	-7.95568
▁생각이	-7.95635
▁정리	-7.96133
좀	-7.96504
리	-7.96948
제	-7.97119
습니다	-7.9731
그래	-7.97467
▁끝	-7.97489
▁언제	-7.98567
▁고백	-7.98862
▁집	-7.9931
▁문제	-7.99573
이별	-7.99739
!,	-7.99938
장	-7.99999
▁내일	-8.00521
▁되는	-8.00645
▁만들어	-8.00888
▁없네	-8.00955
면서	-8.01036
아직	-8.01448
▁알아	-8.01489
▁나는	-8.01587
정	-8.02635
그럴	-8.02762
▁좋을까	-8.02799
아무	-8.02799
때	-8.02889
▁않은	-8.02915
▁있죠	-8.02978
▁필요해	-8.0358
걸	-8.03615
▁공부	-8.03895
▁자	-8.04009
안	-8.04558
▁와	-8.05013
▁결국	-8.05168
▁기억	-8.05648
▁전화	-8.05699
▁남	-8.05723
▁싶은데	-8.06076
것도	-8.0611
다면	-8.06211
▁스트레스	-8.06921
▁어디	-8.07086
▁당신	-8.07189
▁그런	-8.07324
만큼	-8.07577
▁가는	-8.0762
▁볼	-8.07837
▁때문에	-8.07965
간	-8.07971
기도	-8.08488
▁꿈	-8.08547
대한	-8.08734
▁같은	-8.08964
시간이	-8.09027
▁아니라	-8.0905
▁거라	-8.09676
▁되	-8.09701
▁한달	-8.09757
적인	-8.09788
▁우리	-8.10108
수록	-8.10223
▁아파	-8.10807
▁믿어	-8.11165
▁아직	-8.11273
려고	-8.11563
▁늦	-8.11672
함	-8.11756
처럼	-8.12292
▁어제	-8.12328
▁중요해	-8.12835
▁어때	-8.12849
▁마	-8.12887
▁비	-8.13314
▁어떤	-8.13533
오늘	-8.13633
먼저	-8.1371
겠네	-8.13733
군요	-8.13756
이라	-8.14015
직접	-8.14386
▁집에	-8.14622
▁점	-8.14667
적	-8.14784
이야	-8.14861
방	-8.14955
제일	-8.15039
정말	-8.15237
▁괜찮아요	-8.15556
들	-8.15563
▁남자애	-8.1565
▁해볼까	-8.15663
▁그렇	-8.15881
▁열	-8.1598
▁여친	-8.16472
내	-8.16713
▁변화	-8.17246
까요	-8.17295
▁쉽지	-8.17793
▁오세요	-8.1785
▁기분	-8.18277
▁물어보	-8.18506
▁같애	-8.18532
음	-8.18841
▁남자가	-8.19177
개월	-8.19387
▁오	-8.19859
▁좋아해	-8.1996
차	-8.20017
▁아직도	-8.20323
▁마지막	-8.20424
겠지	-8.20452
▁가지	-8.21443
▁살고	-8.22349
▁이젠	-8.23182
▁난	-8.23346
▁알았는데	-8.23372
▁뭘까	-8.2341
시간	-8.23415
▁왔어	-8.24622
여	-8.25334
▁썸남	-8.25488
▁되나	-8.25543
▁연락을	-8.25775
▁했는데	-8.25822
야지	-8.25838
▁기다려	-8.25858
▁보내	-8.26047
▁번	-8.26148
좋아하는	-8.26152
러	-8.26257
▁갑	-8.26648
▁노래	-8.26799
▁필요	-8.26926
▁맘	-8.26963
▁타	-8.27215
▁제	-8.27392
▁남친	-8.27618
하는데	-8.27918
에는	-8.28133
▁어떡해	-8.28211
▁짝남한테	-8.28432
시	-8.28578
새로운	-8.2861
▁핸드폰	-8.28625
▁사진	-8.28848
져	-8.29149
▁차	-8.29422
▁피	-8.29677
▁헤어지고	-8.30046
▁꼭	-8.30133
이랑	-8.30347
▁없다	-8.30464
▁합니다	-8.30713
▁마음에	-8.30923
▁만나는	-8.30943
▁기대	-8.31185
▁받아	-8.31208
하네	-8.3138
▁잠	-8.31555
▁완전	-8.31648
하기	-8.31765
▁사람한테	-8.31788
하	-8.32039
▁이런	-8.3208
▁말아	-8.32123
▁이별을	-8.32418
▁얼마	-8.32667
아요	-8.32905
▁보는	-8.32978
했던	-8.33096
▁없을	-8.33361
▁많았	-8.33438
▁큰	-8.33476
▁놀	-8.33501
▁있다면	-8.33654
▁5	-8.33912
구	-8.33935
▁재회	-8.33993
마다	-8.34027
된	-8.34463
▁된	-8.34777
▁사는	-8.34921
하죠	-8.34962
▁상처	-8.35144
▁들	-8.35208
▁모르겠어요	-8.35405
임	-8.3568
▁밥	-8.36133
▁중요한	-8.36325
▁연락해	-8.36387
돈	-8.36471
▁후회	-8.36544
▁관계	-8.36646
▁예의	-8.36683
맛있	-8.36773
어떤	-8.36984
살	-8.37108
▁말이	-8.37136
▁앞에	-8.37314
▁"	-8.37448
드	-8.37743
▁선택	-8.3792
하면서	-8.38001
마세요	-8.38068
▁새로운	-8.38081
친구가	-8.38109
신	-8.38139
줄	-8.38278
▁사람들이	-8.38665
▁가져	-8.38719
▁모르는	-8.38908
이나	-8.38937
▁오늘도	-8.38971
소	-8.3902
▁잔	-8.39257
▁모습	-8.39461
▁날이	-8.39555
달	-8.39756
실	-8.39796
▁아침	-8.39905
▁헤어짐	-8.40115
▁정도	-8.40389
▁시간을	-8.40825
치	-8.41049
▁걱정	-8.4155
▁나와	-8.41579
▁않았	-8.41712
▁기	-8.41817
▁걸까	-8.41835
▁6	-8.41884
▁엄청	-8.42039
▁자주	-8.42395
또	-8.4269
힘든	-8.4282
게요	-8.433
▁좋아할	-8.43608
더니	-8.43781
▁싶어요	-8.439
▁만나고	-8.43964
▁덜	-8.43973
▁요즘	-8.44179
▁맞는	-8.44233
달라고	-8.44859
▁그만	-8.45028
▁추천	-8.45223
▁사이	-8.45246
전	-8.45371
▁두	-8.45416
▁서로	-8.45543
▁제가	-8.45638
그렇	-8.45902
무슨	-8.45985
▁누구	-8.46134
▁결정	-8.46214
찍	-8.46223
▁갈	-8.46907
▁연습	-8.46921
▁정리가	-8.46964
▁있었나	-8.46979
▁사세요	-8.47127
▁운동	-8.47188
▁느낌	-8.47709
▁만들	-8.47816
날	-8.47891
▁귀	-8.4817
▁빨리	-8.48198
▁줘	-8.48387
▁엄마	-8.4847
▁4	-8.48634
▁이해	-8.48868
▁아닌	-8.48955
▁새	-8.49152
▁나이	-8.49389
▁생각나	-8.49426
하나	-8.49855
▁가장	-8.49856
▁먹	-8.4986
▁몇	-8.49926
▁길	-8.49997
▁잘하는	-8.50032
▁하는데	-8.50537
▁되지	-8.50756
마음의	-8.50768
▁다가가	-8.50831
▁아닌데	-8.50859
▁이상	-8.51216
▁끝나	-8.51258
▁하죠	-8.51345
▁물	-8.51355
지는	-8.51366
▁되길	-8.51686
발	-8.51865
만에	-8.51877
▁인생	-8.51974
▁충분	-8.52084
릴	-8.52402
다시	-8.52406
▁힘들다	-8.52432
▁딱	-8.52849
▁넘	-8.52961
▁갖	-8.53031
▁자기	-8.53043
▁물어	-8.53781
▁좋	-8.53944
▁어려워	-8.54018
▁여친이	-8.54205
상대방	-8.54269
말	-8.54272
▁소개팅	-8.54575
▁벌써	-8.54579
일째	-8.54588
졌어	-8.54765
▁않죠	-8.54802
▁궁금해	-8.54875
사	-8.55011
▁기다리	-8.55257
트	-8.55403
▁날씨	-8.55492
었어	-8.55514
▁입	-8.55648
보	-8.55847
많은	-8.55949
▁사람들	-8.56067
얼	-8.56225
▁뭘	-8.56258
누구	-8.56267
▁아픈	-8.56475
남	-8.56574
▁만난	-8.56586
▁몸	-8.56616
▁미련	-8.56623
▁나서	-8.56689
▁것이	-8.56709
인가	-8.56812
▁정	-8.5685
일까	-8.56963
디	-8.57097
▁받고	-8.57313
▁주무	-8.57329
▁전에	-8.57515
▁남편이	-8.57771
▁같	-8.57872
같은	-8.58193
▁영화	-8.58284
▁의미	-8.58518
연락	-8.58698
눈	-8.58742
▁보면	-8.58957
▁커피	-8.59044
릴게요	-8.59176
▁모두	-8.59184
▁말씀	-8.59199
▁아는	-8.5977
▁행복	-8.5989
▁여자애	-8.5991
▁됐어	-8.60232
없이	-8.60621
것	-8.60657
▁많	-8.60677
▁위해	-8.60701
▁자체	-8.60909
▁못하겠어	-8.6111
▁안해	-8.61288
▁뭐야	-8.61288
▁기분이	-8.61289
번	-8.6142
▁연락하고	-8.61577
듯	-8.61637
▁힘이	-8.61708
▁예뻐	-8.61837
▁썸남이	-8.61948
사람을	-8.62548
봐	-8.62703
볼까	-8.62962
집	-8.63036
▁거죠	-8.63242
▁얼굴	-8.63361
▁힘들게	-8.63469
통	-8.63484
▁조심하세요	-8.63779
답	-8.63828
운동	-8.64287
▁대	-8.64364
▁먹어야지	-8.64464
▁괜찮을까	-8.64491
미리	-8.64497
▁알바	-8.64536
용	-8.64564
▁가능	-8.64966
▁매일	-8.64994
▁일어나	-8.65027
▁막	-8.65141
후회	-8.65267
보고	-8.65503
인연이	-8.65641
▁얼	-8.65693
▁부	-8.65759
▁같네	-8.6587
언젠	-8.65899
당신이	-8.65934
▁맞	-8.66462
▁무	-8.66887
단	-8.67077
."	-8.67088
잠시	-8.67172
▁지	-8.67894
썸	-8.68036
▁힘들지	-8.68066
▁티	-8.68108
▁만났어	-8.68175
▁귀찮아	-8.68261
▁차이	-8.68475
▁모든	-8.6858
▁말해	-8.68796
▁그녀를	-8.69203
▁꽃	-8.69562
▁물어보는	-8.69569
▁좋아하게	-8.69613
▁현실	-8.69667
▁부모님	-8.69854
▁중에	-8.69891
▁못하는	-8.70049
▁사귀는	-8.70116
해야	-8.7014
▁화장	-8.70365
매일	-8.70519
▁괜찮은	-8.70531
마음에	-8.70975
▁많아요	-8.70976
▁법	-8.70998
▁감	-8.71095
냐	-8.71302
했나봐	-8.71407
작은	-8.71466
힘들	-8.71588
▁손	-8.71631
▁재미	-8.717
잠깐	-8.71787
▁중요하지	-8.72188
▁짝녀한테	-8.72195
▁회사	-8.72276
▁동	-8.72365
▁먹으면	-8.73275
다가	-8.73321
럽	-8.73412
▁챙겨	-8.73486
▁다를	-8.73523
▁소리	-8.73555
▁싫다	-8.73569
인가봐	-8.73691
어서	-8.73734
▁받을	-8.7376
▁대해	-8.73771
▁생각할	-8.73818
▁없이	-8.7386
▁했어	-8.73863
▁적	-8.73891
있는	-8.73908
▁화	-8.73998
친구	-8.74257
▁만	-8.7432
▁선	-8.74327
▁주는	-8.74339
▁간다	-8.7436
▁사귀고	-8.74506
▁어느	-8.74926
▁편이	-8.74952
▁봐	-8.75262
▁이별후	-8.75344
했어요	-8.75584
▁헤어지	-8.75706
▁드는	-8.75883
▁필요한	-8.75929
갈	-8.75931
▁학교	-8.7597
▁생길	-8.76008
보면	-8.76009
▁떠나	-8.76014
▁고민이야	-8.76052
▁시험	-8.76056
▁헤어졌습니다	-8.76118
▁게임	-8.76261
▁바람	-8.76302
공부	-8.76336
울	-8.76412
▁표현	-8.76466
비	-8.76587
피	-8.76745
▁곳이	-8.76861
들이	-8.77015
▁알게	-8.77512
▁자신이	-8.77543
▁좋아하	-8.78201
그분	-8.78295
▁건지	-8.78483
사랑에	-8.78893
맘	-8.78952
▁뿐이	-8.7946
▁되네	-8.79493
▁예쁘	-8.79506
▁전여친	-8.79651
란	-8.79653
대화	-8.79674
▁놀아	-8.79755
내일	-8.79776
고생	-8.79877
감기	-8.80021
▁알려줘	-8.80065
라면	-8.80085
▁같습니다	-8.80147
며	-8.80233
▁옷	-8.80697
▁아닌지	-8.80804
▁맨날	-8.80813
▁행복해	-8.8085
▁생겼	-8.81151
▁해주세요	-8.81154
▁타고	-8.81257
약	-8.81314
▁그래요	-8.81376
중	-8.81529
다음에	-8.81785
▁신경쓰지	-8.82139
▁않고	-8.82663
▁첫사랑	-8.82921
린	-8.82971
술	-8.83018
▁사귀	-8.83033
▁되어	-8.83114
,"	-8.83162
텐데	-8.83179
▁상대	-8.83213
▁가끔	-8.83381
▁약속	-8.83461
▁드	-8.83632
▁용기	-8.84007
가서	-8.8407
▁좋다	-8.8409
이젠	-8.84192
했는데	-8.84229
림	-8.84244
▁사랑할	-8.84277
▁추억	-8.84386
덧	-8.84538
▁뭔지	-8.84596
▁위	-8.84645
겠지만	-8.84659
▁있지	-8.84695
▁뿐	-8.84717
▁기회	-8.84798
▁나쁜	-8.84907
▁싶	-8.85008
▁받아들이는	-8.85058
▁좋은데	-8.85108
▁죽을	-8.85161
▁좋겠죠	-8.85391
▁삶	-8.85533
▁남친이	-8.85563
▁여자애가	-8.8579
▁주	-8.85986
거야	-8.86003
▁코	-8.86012
▁확인해	-8.86168
줘	-8.86173
▁쉬운	-8.86229
▁찾아보	-8.86361
▁가기	-8.86389
싶네요	-8.86481
▁이별이	-8.865
▁먹을	-8.86518
▁아픔	-8.86562
▁꿈에	-8.86584
▁데	-8.86615
▁설레	-8.86634
▁실수	-8.86876
▁상관	-8.87071
이별을	-8.87138
바	-8.87295
▁좋지	-8.87466
▁가야	-8.87584
▁안되는	-8.87659
당	-8.87826
▁후폭풍	-8.87988
▁좋아하는데	-8.88071
▁지켜	-8.88114
▁만남	-8.88334
맛	-8.88479
▁사랑하고	-8.88505
▁해봐요	-8.88666
▁일을	-8.88667
▁알고	-8.88684
▁한번	-8.88715
엔	-8.88846
▁그래	-8.88936
▁개	-8.88946
나쁜	-8.88959
자책하지	-8.88963
▁떨려	-8.88985
겠어	-8.89015
▁약	-8.89059
▁잘할	-8.89082
▁않는다면	-8.89085
▁호감	-8.891
▁드디어	-8.89155
▁아닐까요	-8.89349
▁처음	-8.89453
▁비싸	-8.89525
나요	-8.89811
▁잘하고	-8.89921
▁사랑해	-8.89953
회사	-8.89972
리는	-8.90022
한번	-8.90103
이라면	-8.90345
▁첫	-8.90582
▁목	-8.90753
▁확신	-8.90783
그러면	-8.91152
~	-8.91195
바쁘	-8.91236
",	-8.91357
▁모	-8.9172
▁잘못	-8.9173
하다	-8.92111
함께	-8.92708
▁남자들	-8.9278
▁괜찮아	-8.92802
▁스스로	-8.93083
▁방법이	-8.93289
열	-8.93417
계속	-8.93451
고민	-8.93543
▁가세요	-8.93559
▁하기	-8.93575
▁힘들었	-8.93579
선	-8.93672
▁비밀	-8.93676
▁무서워	-8.9372
▁위로	-8.93797
▁못해	-8.93838
나중에	-8.93936
슬픈	-8.93995
▁밤	-8.94
▁탈	-8.94022
▁배	-8.94083
▁써	-8.94098
▁돈이	-8.9428
▁진심	-8.94295
▁문자	-8.94376
▁책	-8.94556
▁편	-8.94741
▁분	-8.94847
▁좋아하면	-8.94996
감	-8.95102
▁별로	-8.95118
▁있습니다	-8.95272
잘할	-8.95312
▁괜찮	-8.95347
▁되겠	-8.95951
▁편지	-8.9598
난	-8.961
을까	-8.96719
▁답	-8.9691
용기	-8.96982
건강	-8.97163
▁두달	-8.97189
▁소중	-8.9753
▁이해해	-8.97625
화	-8.97822
연애	-8.9785
▁보지	-8.97867
꾸준	-8.98038
▁구	-8.98126
▁쓰	-8.98128
▁프사	-8.98369
더라	-8.98412
▁아프네	-8.98508
▁어려운	-8.98723
▁되고	-8.98741
▁있잖아	-8.98756
▁헤어졌어	-8.98773
▁경우	-8.98805
가슴이	-8.98841
▁물어봐	-8.98856
▁싸	-8.98888
▁않았으면	-8.98894
몸	-8.98945
▁아프	-8.98956
오래	-8.99003
스스로	-8.99163
확신	-8.99269
요즘	-8.99317
즐거	-8.99436
더라고요	-8.99456
▁생기	-8.99572
▁시기	-8.99814
▁전남친	-8.99821
▁그리고	-8.99827
▁썸녀	-8.99973
▁시켜	-9.00149
▁것보다	-9.00339
▁보통	-9.00392
▁매	-9.00433
▁글	-9.00651
가면	-9.00778
▁복	-9.01093
▁친구한테	-9.01136
▁필요하겠	-9.01242
▁볼까	-9.01313
마	-9.01488
▁봅니다	-9.01667
▁친구들이	-9.01729
했으면	-9.0174
짝	-9.01781
▁힘내세요	-9.0216
애가	-9.0236
다니	-9.02608
두	-9.02719
▁만나지	-9.0307
▁별	-9.03095
▁없나	-9.03118
까봐	-9.03201
돼	-9.03259
▁끝이	-9.03462
▁만나자	-9.03515
▁잊고	-9.03544
▁지났네	-9.03584
쉽지	-9.03654
▁앞	-9.03749
▁헷갈리	-9.03821
새	-9.03865
땐	-9.03872
▁느낌이	-9.03918
증	-9.0394
▁관리	-9.04086
▁고생	-9.04093
▁오는	-9.04138
셔	-9.04165
▁눈물	-9.04196
원	-9.04379
조심하세요	-9.04622
▁않을까요	-9.04643
신경	-9.04781
꼭	-9.04833
▁가슴	-9.04851
▁괜	-9.04852
▁자존감	-9.04959
▁뭔가	-9.04983
▁사람에	-9.05138
▁이야기해	-9.05138
동안	-9.05303
▁파	-9.05328
▁받았어	-9.05388
▁쉽	-9.05471
▁있으니까	-9.05519
제대로	-9.0571
▁조	-9.05753
▁내려	-9.05798
자신에게	-9.05889
▁싶지	-9.05914
▁생각해보세	-9.0596
▁자신감	-9.06118
▁해서	-9.06194
다는	-9.06258
▁사람과	-9.06398
▁척	-9.06593
걸까	-9.06704
론	-9.06715
▁월급	-9.06723
째	-9.07021
▁잠이	-9.07132
▁버리	-9.07216
▁연락해도	-9.0722
보는	-9.07512
▁먹는	-9.07617
▁편하	-9.07622
▁폰	-9.07633
▁나을	-9.07806
▁습관	-9.07826
식	-9.07892
▁마시	-9.07965
맛있는	-9.08042
▁거짓말	-9.08108
사랑이	-9.08148
▁신경	-9.0832
뭐	-9.08337
현실	-9.08445
▁잊혀지	-9.08613
짝사랑	-9.08711
▁보고싶어	-9.0874
▁연인	-9.08813
▁해보는	-9.08935
인생	-9.09041
해야지	-9.09057
어도	-9.0912
▁있나요	-9.0921
▁끝내	-9.09435
글	-9.09475
▁버텨	-9.09497
▁말하는	-9.09502
▁어플	-9.09508
▁나랑	-9.09537
▁보러	-9.09578
▁현상	-9.09742
▁오빠	-9.09745
▁10	-9.09754
머리	-9.09943
▁고민이	-9.10009
▁시	-9.10082
▁조언	-9.10249
년째	-9.10255
▁모르	-9.10443
는건	-9.10494
후회하지	-9.1058
양	-9.10607
어느	-9.10651
가끔	-9.10743
▁마음의	-9.1086
▁봄	-9.10894
▁살아	-9.10978
▁스킨십	-9.11086
▁분위기	-9.111
▁하늘	-9.11222
▁좋아할까	-9.11348
▁살펴	-9.11394
먹고	-9.1144
▁우산	-9.11598
야겠다	-9.116
후	-9.11885
▁받	-9.12549
달라지는	-9.1257
▁받는	-9.12619
▁괜찮을	-9.12652
로맨틱	-9.12716
▁사랑하면	-9.12831
▁잊지	-9.12838
▁보이	-9.12949
▁사람에게	-9.13012
▁직장	-9.13022
생각이	-9.13095
▁순간	-9.13207
스	-9.13475
▁주면	-9.13538
▁확실	-9.13784
처음	-9.13788
▁마련	-9.13996
▁상	-9.14117
▁행동	-9.14171
▁안하고	-9.14353
칠	-9.14565
▁안들어	-9.14628
▁졸	-9.15278
축하드려요	-9.15312
▁최고	-9.15449
▁욕	-9.15487
▁등	-9.15631
▁헤아리	-9.15725
▁정리하는	-9.15763
한동안	-9.15778
▁친구들	-9.15857
크	-9.15866
▁보여	-9.15939
진짜	-9.16021
진심	-9.16065
▁여유	-9.16078
▁유	-9.16104
시군요	-9.16106
▁눈물이	-9.16232
▁둘	-9.16265
▁답장	-9.16507
▁따	-9.16568
모든	-9.1657
후폭풍	-9.16827
여행	-9.16856
종	-9.16948
▁여	-9.16959
▁인기	-9.17012
곧	-9.17071
▁상담	-9.17081
▁심해	-9.17167
▁강	-9.17408
▁긴	-9.17424
▁모르겠네	-9.17542
▁못하고	-9.17597
낼	-9.17658
밖에	-9.1775
▁안나	-9.17803
▁뭐라고	-9.1791
이면	-9.18016
▁선물이	-9.18077
이별한	-9.18129
??,	-9.18136
▁이사	-9.18151
▁사랑에	-9.18178
▁주고	-9.18432
우	-9.18495
▁것을	-9.18538
▁되기	-9.18554
사람은	-9.18828
ᅮ	-9.19107
▁생겼어	-9.19113
▁인정	-9.19291
▁살펴보	-9.19545
야죠	-9.19858
▁생각하는	-9.19989
▁만남이	-9.20035
해볼까	-9.20081
▁발	-9.20292
같아	-9.20399
▁노력	-9.20508
▁얘기	-9.20693
▁힘들겠지	-9.20917
▁연락하는	-9.21043
따뜻	-9.21223
시길	-9.21301
못	-9.2133
▁죽	-9.21405
▁풀	-9.21518
원하는	-9.21591
▁저녁	-9.21621
▁면접	-9.21622
▁떠난	-9.21657
동	-9.21677
▁안경	-9.21744
▁짜증나	-9.21747
▁좋을텐데	-9.21833
▁준	-9.2185
▁새벽	-9.21899
▁의사	-9.21933
▁한잔	-9.21985
▁중인	-9.21987
건강에	-9.21995
▁영	-9.22008
될	-9.22014
▁생일	-9.22115
▁발표	-9.22194
▁담배	-9.22196
▁극복	-9.22242
▁웃	-9.22294
▁썸타는	-9.22423
▁갈까	-9.22427
▁원래	-9.22526
▁이상해	-9.22609
기분	-9.22679
▁신	-9.22721
▁당	-9.22826
쉬운	-9.22935
▁있으	-9.23227
▁상황을	-9.23253
▁쉬어	-9.23287
진정	-9.23454
▁이제는	-9.23505
건가	-9.23506
▁해줘	-9.23506
ᅲᅲ	-9.23545
▁낫	-9.23555
멋진	-9.23563
놓고	-9.23589
▁소식이	-9.23617
딱	-9.23627
분	-9.23644
▁다르	-9.2367
초	-9.23671
▁벌	-9.2379
▁톡	-9.23956
케	-9.24073
성	-9.24097
▁잊을	-9.24192
▁되는데	-9.24198
▁떠	-9.24342
▁카페	-9.24391
▁되었	-9.24484
▁선택일	-9.24501
▁쉬는	-9.24539
▁눈에	-9.24557
▁받지	-9.24709
▁그대로	-9.24721
▁인연	-9.24879
▁놓아주	-9.25017
워	-9.25082
▁두려워	-9.25101
!!	-9.25184
▁커	-9.25235
우리	-9.25363
▁부분	-9.2543
▁주말	-9.25432
▁주지	-9.2563
ᅲ	-9.25668
▁잊는	-9.25727
▁알아보	-9.25738
▁장	-9.25826
▁마셔	-9.25988
▁종	-9.2613
별	-9.26139
부	-9.26145
▁세	-9.26263
▁차단	-9.26417
▁확인	-9.26802
▁살까	-9.26835
애	-9.27604
을지도	-9.27722
▁다르겠지	-9.27799
▁하셨	-9.27801
료	-9.27892
기는	-9.27969
▁짝사랑하는	-9.2807
션	-9.28154
락	-9.28183
▁장난	-9.2821
▁바뀔	-9.28283
꿈	-9.2829
▁쓰는	-9.28321
▁만났는데	-9.28418
▁있고	-9.28427
▁어쩌지	-9.2843
겠다	-9.28467
상대	-9.28496
▁7	-9.28529
▁힘	-9.28583
▁번호	-9.28611
반	-9.28749
▁먹어	-9.28779
▁좋겠지	-9.28793
▁상사	-9.28856
▁지나갈	-9.29055
▁가능성	-9.2907
▁여자친구와	-9.29189
예	-9.29206
▁예쁜	-9.2923
?,"	-9.29261
어보세요	-9.29351
▁뭐하지	-9.29456
▁사랑하는데	-9.29548
▁깨	-9.29584
▁않으면	-9.2963
▁안와	-9.29804
▁잡	-9.30089
▁없는데	-9.30113
▁상황	-9.30139
스트레스	-9.30197
▁싶네	-9.30386
▁그러	-9.30423
바쁜	-9.30469
안녕	-9.30559
▁달	-9.30581
▁여러	-9.30588
매	-9.30615
잠을	-9.30645
▁이상한	-9.30708
직장	-9.30737
▁과정	-9.30816
사랑했던	-9.30831
▁괜찮아졌	-9.30888
내가	-9.30944
▁드시	-9.3103
▁옆에	-9.31061
▁필요할	-9.31185
▁집중	-9.31207
미련	-9.31376
▁부담	-9.31527
▁좋아하나	-9.31532
▁그녀가	-9.31626
했	-9.31724
▁이별의	-9.31746
▁되면	-9.31752
▁준비하	-9.31761
▁만나면	-9.3179
▁찍	-9.3191
▁곳에	-9.31929
▁없으면	-9.31957
▁자연스	-9.32148
▁만드	-9.32237
▁확실한	-9.32605
▁천	-9.32731
었던	-9.33172
겨	-9.33222
르	-9.33367
앞으로	-9.33511
알	-9.33527
▁맞춰	-9.33733
가장	-9.33794
자연스러	-9.33842
▁했던	-9.33863
세	-9.33866
주가	-9.33889
으니까	-9.33892
▁살아야	-9.3401
!!,	-9.3404
▁인사	-9.34088
▁보기	-9.34151
▁했으면	-9.34199
▁원하는	-9.34441
▁지내	-9.34509
가요	-9.3471
▁우울	-9.34815
▁않네	-9.35002
으세요	-9.35038
됐어	-9.35044
▁외로워	-9.35069
▁싫은	-9.35128
▁생각나네	-9.35155
▁속이	-9.35309
▁정신	-9.35397
▁느려	-9.35425
▁대학	-9.35434
▁미친	-9.35438
▁추워	-9.35446
▁걱정돼	-9.35476
▁결과	-9.35504
▁어떡하지	-9.3551
▁쓰레기	-9.35514
집에서	-9.35552
▁8	-9.35686
▁쐬	-9.35686
▁필요하죠	-9.3572
▁꿨어	-9.35737
▁자격	-9.35804
▁생각나는	-9.35826
물	-9.35831
▁돌	-9.35857
▁키	-9.35878
▁식	-9.3588
▁중요	-9.35905
▁온	-9.35924
▁음식	-9.35941
남자	-9.36021
▁믿	-9.36071
▁버스	-9.36084
▁집안일	-9.36093
▁나오	-9.36094
▁목소리	-9.3611
▁정리하	-9.36111
▁타는데	-9.36281
▁아닐	-9.36285
▁있겠지	-9.3631
▁됨	-9.36355
추억	-9.36357
▁숨	-9.3637
는거	-9.36389
▁했습니다	-9.36418
▁나가	-9.3644
▁취미	-9.36456
▁세상	-9.36619
이란	-9.36662
▁동거	-9.36669
▁없애	-9.36698
▁사랑해서	-9.3673
배	-9.36761
짐	-9.36837
▁눈치	-9.36872
▁우	-9.36946
▁중요하	-9.37042
쳐	-9.37098
▁마련이	-9.37149
세상에	-9.37192
▁커플	-9.37459
박	-9.37521
▁휴	-9.37533
▁못할	-9.37541
▁최선	-9.37674
관계	-9.37677
폰	-9.37742
▁왔는데	-9.37748
▁될까요	-9.38021
▁쇼핑	-9.38128
밥	-9.38173
었길	-9.38211
▁독	-9.38234
▁않으니	-9.38302
▁존중	-9.38313
학	-9.38362
힘내세요	-9.38393
▁뭐라	-9.38414
▁결혼식	-9.38461
▁여자들	-9.3858
▁거야	-9.38724
▁능력이	-9.39139
▁종교	-9.39208
되	-9.39212
느라	-9.39217
한데	-9.39464
록	-9.39513
▁어때요	-9.39527
▁건가	-9.39743
▁생각하	-9.3977
▁달라	-9.39793
하니까	-9.39813
▁만났	-9.39841
▁흘렀네	-9.39851
거리	-9.39936
라는	-9.40156
하거나	-9.40204
▁이상형	-9.40278
잘하고	-9.40459
▁반대	-9.40505
▁해결	-9.40606
▁간	-9.40613
▁곧	-9.40783
▁감정이	-9.40899
런	-9.4099
말고	-9.40997
▁사랑했던	-9.41476
왔어	-9.41505
▁미워	-9.41514
▁군대	-9.41558
다음	-9.41572
▁챙겨드	-9.41606
▁그리워	-9.41687
▁부러워	-9.41817
▁거니	-9.42309
▁밖에	-9.4231
렇게	-9.42548
친한	-9.42573
▁말씀해	-9.42634
▁행복하	-9.42823
▁그렇지	-9.42882
▁존재	-9.42946
▁용	-9.42972
팅	-9.43015
심호흡	-9.43061
혹시	-9.43068
▁시계	-9.43069
평소	-9.43088
이라고	-9.43088
▁샀어	-9.43127
▁헤어졌는데	-9.4321
온전	-9.43275
▁떨어졌어	-9.43277
▁재밌	-9.43328
들을	-9.43337
▁말도	-9.43355
▁통보	-9.43388
▁희망	-9.43448
▁즐기세요	-9.43475
▁미세먼지	-9.43481
주는	-9.43552
좋아	-9.43615
▁먹을까	-9.43622
▁감기	-9.43674
▁적응	-9.43765
결혼	-9.43789
▁이건	-9.43794
년이	-9.4381
▁졸업	-9.43831
법	-9.43923
냐고	-9.44083
미련이	-9.44138
었는데	-9.44158
▁찾아올	-9.44203
▁할텐데	-9.444
▁썸인	-9.44438
었나봐	-9.44454
▁짧	-9.445
▁위로해	-9.44513
▁있지만	-9.44552
▁피곤해	-9.44705
기대	-9.44787
▁연예인	-9.44983
할때	-9.4499
▁상관없	-9.44993
▁놀고	-9.45066
▁질투	-9.4513
기억	-9.45172
▁왔다	-9.45174
▁서로에	-9.45229
▁당신이	-9.45473
▁상처를	-9.45501
▁고	-9.45512
▁시작해	-9.45887
준	-9.45951
▁그랬	-9.45953
친구들과	-9.45965
▁이거	-9.4597
둘	-9.46021
그냥	-9.46039
사랑하는	-9.46156
두고	-9.46166
저도요	-9.46303
▁문	-9.46362
중요한	-9.46362
▁꾸	-9.46454
모두	-9.46558
코	-9.46567
화장실	-9.46602
병원	-9.46639
▁행복한	-9.4664
여유	-9.46662
확실한	-9.46678
절대	-9.46688
필요한	-9.46693
티	-9.4671
이네	-9.4672
잡고	-9.4676
▁도전	-9.46794
뭘	-9.46851
모르는	-9.46994
▁한달이	-9.4725
▁변하	-9.47304
병	-9.47376
▁괜찮아질	-9.47438
▁달라고	-9.47492
▁충전	-9.47788
하려고	-9.47821
꺼	-9.47834
▁학원	-9.47943
▁궁금하네	-9.47972
▁떨	-9.48012
창	-9.48019
▁것들	-9.48025
▁안녕	-9.48092
▁아는데	-9.4818
▁편할	-9.48197
▁걷	-9.48237
기만	-9.48245
고민이	-9.48269
▁않게	-9.48487
2	-9.48587
~,	-9.48658
▁꿈이	-9.48759
▁힘내	-9.48776
세상	-9.48786
▁크리스마스	-9.48788
▁바보	-9.48813
▁듣	-9.48819
▁배우	-9.48883
작	-9.48957
렸어	-9.49022
한다	-9.49103
많죠	-9.49469
▁바라	-9.49527
▁사이에	-9.49589
▁스	-9.49608
께	-9.4962
하다가	-9.49812
▁키우	-9.49819
▁있네	-9.4996
▁스타일	-9.49962
▁맛	-9.49966
시간을	-9.50042
▁없지	-9.50084
▁생각하지	-9.50094
▁내는	-9.50165
▁그런가	-9.50261
▁몰랐	-9.50297
한다면	-9.50551
지지	-9.50612
▁가족	-9.50613
▁취	-9.5077
▁내리	-9.50867
▁분이	-9.50889
▁환승	-9.50963
이렇게	-9.51073
급	-9.51178
곰	-9.51395
링	-9.51395
▁걔	-9.51395
▁스키	-9.51397
차근	-9.51405
▁피하	-9.51421
이겨낼	-9.5145
▁귀여워	-9.51454
지금처럼	-9.51649
만남	-9.5177
▁안됐는데	-9.51781
▁최고죠	-9.51802
▁기운	-9.51812
▁권태기	-9.51821
▁많은데	-9.51831
▁나왔어	-9.51831
▁텐데	-9.51868
큰	-9.51869
▁연	-9.51883
▁헤어지자고	-9.51944
차단	-9.52029
▁관심사	-9.52048
끝	-9.52135
▁사랑한	-9.52136
▁후회할	-9.52184
▁이번	-9.52185
▁됐으면	-9.52193
▁사귈	-9.52198
▁치과	-9.52214
▁조절	-9.52236
▁증거	-9.52347
▁깊	-9.52383
▁순간이	-9.52405
▁걱정하지	-9.52521
그러게	-9.52594
▁해야지	-9.52625
됐는데	-9.52715
감정	-9.52751
▁됩니다	-9.52777
▁지쳤나	-9.52851
이라는	-9.52906
▁크게	-9.52913
▁모아	-9.52931
어떻게	-9.52972
▁그사람	-9.52993
▁크	-9.53016
▁말할	-9.53038
▁다이어트	-9.53071
▁오랜만에	-9.53096
▁휴식	-9.53247
▁장거리	-9.53298
▁인	-9.53427
▁직접	-9.53482
그것	-9.53483
▁꿈에서	-9.53489
복	-9.53554
▁있겠죠	-9.53599
▁일상	-9.53662
는지	-9.53671
사소	-9.53677
▁진급	-9.53773
▁인연이	-9.53782
▁학	-9.53801
▁힘들어서	-9.53821
▁듣고	-9.53841
왜	-9.53896
▁드네	-9.53989
▁썸이	-9.54111
메	-9.54268
▁연락하면	-9.54431
▁통해	-9.54476
재	-9.54483
하루	-9.54494
▁따로	-9.54553
▁있을거예요	-9.54558
▁단	-9.54613
아니	-9.54622
구나	-9.54711
▁붙잡고	-9.54733
▁따뜻	-9.54739
주변	-9.54751
▁여기	-9.54937
▁사랑한다	-9.54971
움	-9.54996
끼	-9.55109
인듯	-9.55148
▁했나	-9.55195
무	-9.55202
싸우면	-9.55343
▁생겼네	-9.55403
노래	-9.55456
커피	-9.55542
▁참아	-9.55646
▁잊어버리	-9.5566
숙	-9.55677
▁거겠죠	-9.55678
▁출근	-9.55753
종교	-9.5576
시원	-9.55788
▁포기	-9.55911
김	-9.55966
▁놀러	-9.55988
용기내	-9.56003
가는	-9.56014
▁재	-9.56035
콩	-9.56111
▁상황이	-9.56178
호감이	-9.56215
▁잊어	-9.56432
▁다녀	-9.56445
▁발전	-9.56498
▁속	-9.5652
결	-9.56689
▁피해	-9.56717
고백	-9.5677
▁헤어져야	-9.56792
줬어	-9.56897
▁추억이	-9.56934
▁초	-9.56947
▁봐도	-9.57065
▁풀어	-9.57157
▁해주는	-9.57165
▁집착	-9.57202
끝을	-9.57269
▁이어	-9.57304
오	-9.57382
▁소개	-9.57402
▁바뀌	-9.57658
지내고	-9.57682
▁아이	-9.578
▁않나	-9.58058
▁절대	-9.58152
▁감사	-9.58163
▁접	-9.58168
▁고통	-9.58273
▁놓고	-9.58358
▁지나갔	-9.58409
▁사야	-9.58411
▁함	-9.58499
▁추천해	-9.58528
▁걸어	-9.5862
▁없어서	-9.58689
▁사귀어	-9.5885
▁돌아가	-9.58916
▁안돼요	-9.58937
오늘도	-9.58963
▁맞았	-9.58982
▁잊	-9.59002
▁지쳐	-9.59208
▁맘에	-9.59229
언젠가	-9.59234
▁결정이었을	-9.59317
▁전부	-9.59351
▁안하는	-9.59371
▁일주일	-9.59513
성공	-9.59652
혀	-9.59674
▁어	-9.597
▁동안	-9.59714
이별이	-9.59764
▁뒤	-9.59922
이야기	-9.59986
리고	-9.60108
상처	-9.60205
▁역시	-9.60242
플	-9.60252
▁괴롭	-9.60257
본	-9.60434
▁봄이	-9.60441
토	-9.60483
맥주	-9.60491
▁이별통보	-9.60494
▁골라	-9.60494
▁하루하루	-9.60543
▁남겨	-9.60549
터	-9.60568
▁집들이	-9.60584
▁잘해줘	-9.60609
▁잠수	-9.60622
▁무시하	-9.60626
▁전환	-9.60669
▁환승이별	-9.60787
▁걸릴	-9.60815
▁넌	-9.60863
▁절	-9.60908
▁멈추	-9.60914
▁드라마	-9.60936
▁불러	-9.60975
▁두번	-9.60979
▁바꾸	-9.60998
와서	-9.61013
▁없겠지	-9.61017
▁자신에	-9.61033
▁성격이	-9.61074
▁잡아	-9.6109
▁끝난	-9.61114
▁알려주	-9.61208
조차	-9.61234
▁습관이에요	-9.61344
▁인형	-9.61356
▁어린	-9.61395
▁언제쯤	-9.61404
▁원	-9.61413
각자	-9.61466
▁피부	-9.61475
▁과일	-9.61501
▁아니야	-9.61572
참	-9.61631
▁사고	-9.61662
▁짧은	-9.6173
▁좋지만	-9.61755
전에	-9.61804
▁습관이	-9.61812
부럽네요	-9.61823
▁배워	-9.61831
▁기념일	-9.61834
▁쓰고	-9.6187
▁말까	-9.61982
▁보고싶다	-9.62043
▁놓	-9.62074
▁들어가	-9.62118
▁싫	-9.6212
부러워요	-9.62213
이별에	-9.62214
▁어울리	-9.62216
▁행복하게	-9.62318
여전	-9.62435
▁데려다	-9.62461
▁어쩔	-9.6263
▁순	-9.6282
▁빼	-9.63072
▁빠지	-9.63079
▁자고	-9.63163
▁바빠	-9.63172
▁했	-9.63174
▁어디서	-9.6318
▁빌려	-9.6318
▁청	-9.63244
다가도	-9.63252
▁담	-9.6333
부모님	-9.63356
듯이	-9.6342
▁쓴	-9.63465
직접적	-9.63517
▁됐네	-9.63523
▁적극적	-9.63529
형	-9.6354
▁자리	-9.6369
달째	-9.63745
▁생각이에요	-9.63883
정신	-9.6389
▁다행이	-9.63956
▁놀이	-9.63997
▁공부하	-9.6416
▁돌려	-9.6418
▁더워	-9.64186
▁음악	-9.64455
▁저에게	-9.64491
▁연락하지	-9.64641
▁부분이	-9.64662
▁짓	-9.64672
명	-9.64688
▁오면	-9.64706
관심	-9.6474
▁지나가	-9.64765
▁선톡	-9.64813
조	-9.64972
▁뜻	-9.65019
말해보세요	-9.65085
현재	-9.65106
▁갔다	-9.65125
▁찾기	-9.65126
손	-9.65175
▁다리	-9.65221
지면	-9.65269
ᄏ	-9.65393
이유	-9.65407
▁변	-9.6552
날씨	-9.65546
위	-9.6558
▁축하해요	-9.65591
적당히	-9.65694
축하해요	-9.65746
서로에	-9.65828
환승	-9.65903
▁남기	-9.66147
힘	-9.66257
▁고백하는	-9.66537
▁늘어	-9.66552
▁읽	-9.66557
▁아니니	-9.66598
▁전해	-9.66614
▁하네	-9.66642
▁ᅲ	-9.66741
만으로	-9.66793
▁표현해	-9.66795
▁슬퍼	-9.66811
▁솔직하	-9.66837
▁향	-9.66881
▁생각에	-9.67055
▁끊	-9.67104
혼자만	-9.67164
▁당당하	-9.67215
싶어	-9.67241
▁마주치	-9.6736
▁기다리는	-9.67457
▁했나봐	-9.67705
속에서	-9.67747
▁있으니	-9.68075
▁클럽	-9.68169
이별의	-9.68587
▁가져보	-9.68648
▁친구로	-9.687
▁노력해	-9.68738
지고	-9.68752
▁타다	-9.6878
먹기	-9.68849
긍정적	-9.68957
▁불	-9.69033
냈어	-9.69035
▁없겠네	-9.69065
▁생	-9.69454
▁틀	-9.69585
▁슬픈	-9.69722
량	-9.69823
▁무섭	-9.70089
▁미	-9.7017
▁지나	-9.70209
줄까	-9.70242
볼	-9.70278
곤	-9.7044
염	-9.70481
▁맡	-9.70485
▁청첩장	-9.70485
▁휴대폰	-9.70485
껏	-9.70485
닉	-9.70485
▁공무원	-9.70486
▁아까워	-9.70486
억지로	-9.70487
▁배고파	-9.7049
▁가능할	-9.70492
▁딸기	-9.70494
▁빠르	-9.70496
▁많지	-9.70499
▁맞는걸까	-9.70536
▁향수	-9.70548
▁고백했는데	-9.70578
노력하	-9.70626
▁이겨내	-9.70632
▁사실	-9.70662
▁다행	-9.70693
▁어렵	-9.7071
▁답답해	-9.70727
▁싶습니다	-9.70735
▁않겠지만	-9.70773
자신이	-9.70814
▁취업	-9.7086
▁아프다	-9.70883
앞머리	-9.70893
"	-9.70899
필요하다면	-9.70903
▁곁에	-9.70924
▁떨어져	-9.71018
▁극복할	-9.71066
오세요	-9.71125
▁채워	-9.71154
▁만나기로	-9.71154
▁상상	-9.71166
▁과거	-9.71175
▁놔	-9.71192
▁먼지	-9.7124
다녀오세요	-9.71264
▁느끼는	-9.71356
연	-9.71367
▁축구	-9.71438
▁노래방	-9.7159
▁막말	-9.71647
▁인정받	-9.71694
▁유지하	-9.71849
▁인상	-9.71944
▁있다는	-9.71957
▁공	-9.7196
▁말투	-9.71976
▁시어머니	-9.71987
년간	-9.7203
셨나봐	-9.7208
▁사랑한다면	-9.72083
힘들겠지	-9.72167
▁않는데	-9.72211
▁올려	-9.72225
▁들었어	-9.72327
▁생각하면	-9.7243
▁벗어나	-9.72454
▁둘이	-9.7248
▁누군가	-9.72536
▁걱정이	-9.72598
부모님이	-9.72615
들에게	-9.72733
▁바쁜	-9.72768
▁이혼	-9.72943
▁라면	-9.72986
으	-9.73006
▁생각만	-9.73122
거울	-9.73125
▁입어	-9.73165
▁시작이	-9.73182
▁몰	-9.73327
▁나을까	-9.73373
헤어짐	-9.73462
▁남자랑	-9.73541
▁생각했나봐	-9.73594
▁주변	-9.73626
각	-9.73707
기를	-9.73792
▁남사친이	-9.7388
▁주말이	-9.73885
갑	-9.73948
▁모르겠	-9.73978
▁혼	-9.74023
▁안되	-9.74041
신경쓰	-9.74078
생각만	-9.74092
▁행복할	-9.74153
▁회식	-9.74424
레	-9.74504
치고	-9.74506
게임	-9.7457
휴가	-9.74596
본인	-9.74628
▁남았	-9.74648
▁있겠	-9.74765
▁쉬어가	-9.74834
▁나온	-9.74979
▁들어와	-9.75049
친	-9.75146
고민하	-9.7515
▁시작하	-9.75256
어머	-9.75273
▁상대방	-9.7532
▁찾아가	-9.75329
건지	-9.75534
▁적당히	-9.75557
▁누가	-9.757
고싶어	-9.75792
아픔	-9.7581
쉽	-9.75859
▁명	-9.75909
따라	-9.75999
▁생긴	-9.76133
▁배려	-9.76161
목	-9.76175
괜찮아요	-9.76296
변화	-9.76301
▁사랑하	-9.76369
▁선택이	-9.76459
글로	-9.76491
안타깝	-9.76527
▁후에	-9.76568
▁재미있어	-9.76586
카페	-9.76636
꽃	-9.76705
산	-9.76706
기다릴	-9.76864
괜찮은	-9.76891
▁인생이	-9.76963
무엇이	-9.76988
성격이	-9.76999
신경쓰지	-9.77014
허	-9.77015
누가	-9.77217
기다리는	-9.77242
▁야근	-9.77397
거죠	-9.77402
포	-9.77404
하니	-9.77556
▁이름이	-9.77639
▁기본이	-9.7773
기분이	-9.77874
공	-9.77998
▁자유	-9.78173
▁미련이	-9.78196
▁방학	-9.78248
선생님이	-9.78447
▁적어	-9.78488
추	-9.78548
▁짐	-9.78556
도시	-9.78669
▁같다	-9.78672
못한	-9.78757
잘하는	-9.78796
▁계절이	-9.78867
▁두고	-9.78897
있어	-9.78899
▁많을	-9.78955
▁표현이	-9.79007
▁나타	-9.79041
▁심하	-9.79041
짝사랑이	-9.79055
▁썼	-9.79135
였어	-9.79195
▁부족한	-9.7939
봐도	-9.79396
▁최악	-9.79475
▁속에	-9.79487
나면	-9.79827
▁맘이	-9.79903
▁냄새	-9.79912
하길	-9.7994
▁마다	-9.80029
▁힘들었을	-9.80095
녀	-9.80117
▁거절	-9.80213
▁연락처	-9.80243
하셨	-9.8041
▁고백하	-9.80449
▁보니	-9.80467
▁끄	-9.80541
기다리면	-9.80567
▁능력	-9.80763
거같아	-9.80852
▁싫어하는	-9.80911
▁과	-9.81083
청소	-9.81091
▁동물	-9.81146
▁사귄	-9.81197
▁본	-9.81266
▁오네	-9.81365
▁청소	-9.81382
▁흐	-9.81387
릿	-9.81594
▁띄	-9.81597
▁빼빼로	-9.81597
▁밝혀	-9.81599
깨끗	-9.81611
▁대출	-9.81612
▁붙여	-9.81618
▁생겨	-9.81619
회원	-9.8162
▁간접적	-9.81623
▁사업	-9.8163
▁싸워	-9.81636
▁언니	-9.81639
▁되었습니다	-9.81689
▁결심	-9.8175
▁일어났	-9.81755
▁거기까지인	-9.81757
위로봇	-9.81782
▁지워	-9.81849
다음부터	-9.81878
▁있었으면	-9.81902
▁빠를	-9.8197
▁말해볼까	-9.81997
▁나쁘지	-9.82002
▁이러지	-9.82052
▁흔적	-9.8207
▁힘듭니다	-9.82138
▁힘든가봅니다	-9.82222
▁헤어졌네	-9.82265
▁도와줘	-9.82279
테니	-9.82309
▁놓아	-9.82327
▁조급해	-9.8235
▁팔	-9.82358
▁이용	-9.8242
▁나올	-9.82431
▁터	-9.82442
▁결혼하면	-9.82483
▁경험이	-9.82512
막혀	-9.82547
▁좋아해주는	-9.8256
▁9	-9.82576
▁보이지	-9.82581
▁고백해도	-9.82586
스러운	-9.82622
은연	-9.82654
▁멋져	-9.82658
▁아빠	-9.82736
▁사람만	-9.82736
▁주말에	-9.82736
▁제발	-9.8274
▁왔으면	-9.82746
▁줄여	-9.8276
▁여자친구에게	-9.82762
▁운명	-9.82774
파	-9.82785
▁끝났어	-9.82884
드릴	-9.82932
결정	-9.82946
▁바라는	-9.82968
▁헤어지는	-9.82998
▁심리	-9.83028
해질	-9.83068
▁없나봐	-9.83078
▁전공	-9.83181
했네	-9.83258
▁가능할까	-9.83286
▁나가기	-9.83289
▁거의	-9.83329
하겠죠	-9.83383
▁예민한	-9.83547
▁지울	-9.8358
▁가자	-9.83665
▁푹	-9.83671
줬으면	-9.8368
▁잘못인	-9.83744
이었으면	-9.83775
▁선배	-9.83794
▁꿀	-9.83904
▁되었나	-9.8401
속	-9.84063
▁해야할까	-9.84101
▁필요하	-9.84123
하러	-9.84229
▁내보세요	-9.84297
▁살기	-9.843
▁미안해	-9.84319
▁산	-9.84364
▁회사에서	-9.8458
▁찍어	-9.84597
▁애들	-9.8461
흔들리지	-9.84753
▁방	-9.84865
▁잘해	-9.85081
▁있었을	-9.85114
었으면	-9.85213
▁이해가	-9.85249
가세요	-9.85306
하다보	-9.85369
▁교회	-9.85371
▁문득	-9.85465
▁SNS	-9.85534
▁우울해	-9.8555
▁못해요	-9.85607
▁왔네	-9.8564
▁잊기	-9.85678
되는	-9.85688
▁성공	-9.85721
을텐데	-9.85723
▁흘렀	-9.85748
▁지치	-9.85832
▁망	-9.85897
▁싸우	-9.85971
▁다니	-9.86002
겠	-9.86037
하시	-9.86061
▁올라	-9.86165
▁부담스럽	-9.86331
▁가는데	-9.86386
▁이유는	-9.86392
▁차분	-9.86537
▁헤어지자	-9.86598
겠습니다	-9.86714
▁마셔야	-9.86731
정이	-9.86788
기로	-9.86795
우선	-9.86804
▁사랑해주	-9.86836
르고	-9.86911
상대방에	-9.87002
▁여사친이	-9.87097
▁가능하	-9.87245
▁바쁘	-9.87287
고싶은데	-9.87332
▁한다	-9.87343
▁평생	-9.87392
운전	-9.87395
개월이	-9.87607
▁건강	-9.87619
힘들겠	-9.87657
야돼	-9.87666
문	-9.87699
▁방학이	-9.87786
짓	-9.87816
▁썸타	-9.87922
로부터	-9.87925
▁돌아	-9.87928
▁처음에	-9.87976
우면	-9.88005
년의	-9.88024
▁매력	-9.88077
체	-9.88129
사귀기	-9.88328
었	-9.88442
생활	-9.88468
▁중간	-9.88498
▁버	-9.88531
▁먹었	-9.88563
기분전환	-9.88764
콜	-9.88802
▁말하	-9.88823
완전	-9.88862
번호	-9.88914
영화	-9.88939
▁양	-9.89077
▁상태	-9.8908
예쁘	-9.89091
합	-9.8911
마스크	-9.8915
▁상처받	-9.89164
부담스럽	-9.89171
우산	-9.89237
자신감	-9.89241
있	-9.89241
개인	-9.89252
미래	-9.89259
가슴	-9.89312
상황이	-9.89316
쇼핑	-9.89319
옷	-9.89332
철	-9.89338
▁온다	-9.89361
칭찬	-9.89377
아름다	-9.89392
▁힘들겠	-9.89499
죄	-9.89557
믿	-9.89563
벌	-9.8964
소화	-9.89695
감정에	-9.89724
▁비가	-9.89733
▁길어	-9.89762
안전	-9.89784
▁않을까	-9.89822
▁배우는	-9.89828
▁바다	-9.89834
봤는데	-9.89838
들어	-9.89953
저에게	-9.90083
▁멋진	-9.90126
▁ᅲᅲ	-9.90146
▁결혼할	-9.90192
시작이	-9.9021
이런	-9.90314
▁있기	-9.90536
▁진정	-9.90581
▁바꿔	-9.90763
지네	-9.90765
▁없을까	-9.90932
전화	-9.9102
자신만	-9.91189
름	-9.9122
▁과정이	-9.91263
▁다가	-9.91295
▁넣	-9.91494
▁즐기	-9.9155
▁태도	-9.91566
여자	-9.91601
▁진	-9.91636
준비	-9.91685
▁노력하	-9.92188
연락이	-9.92193
소리	-9.92428
▁보여주	-9.92601
연락을	-9.92603
바람	-9.92607
▁차리	-9.92665
재미있	-9.92726
▁어떨까	-9.92884
▁차별	-9.92887
받는	-9.92991
▁의심	-9.93009
아직도	-9.93053
▁질	-9.93061
▁견뎌	-9.93121
▁마무리	-9.93193
▁말해주	-9.9378
▁떨리	-9.93857
▁퇴근	-9.93889
▁신혼	-9.93906
후련하	-9.93957
님	-9.93983
거려	-9.94025
▁단단	-9.94041
▁파혼	-9.94048
봅시다	-9.94097
▁느낄	-9.94097
▁삼겹살	-9.94097
▁택배	-9.94097
왤	-9.94097
킁	-9.94097
푼	-9.94097
▁우선순위	-9.94097
▁웬수	-9.94097
뻑	-9.94097
▁인턴	-9.94098
▁까먹었다	-9.94099
꼬박	-9.94102
▁통화	-9.94113
▁천재	-9.94115
▁느껴져	-9.94118
▁대단하	-9.94119
▁불편해	-9.94152
교통	-9.94173
▁있다	-9.94214
보일러	-9.94221
영화관	-9.94221
▁좋았는데	-9.94222
▁성공할	-9.94303
▁중국어	-9.94324
더라구	-9.94333
▁차가워	-9.94346
▁생겼으면	-9.94372
▁알아차	-9.94373
▁속상해	-9.94386
기다리	-9.94392
개월째	-9.94401
▁안되네	-9.94418
▁흐르고	-9.94443
▁느낌이야	-9.94481
▁움직이	-9.94495
▁춥	-9.94509
망	-9.94551
▁들여	-9.94553
▁시선	-9.94573
▁넓	-9.94585
▁지진	-9.94627
▁명절	-9.94642
▁계	-9.9465
▁생각했는데	-9.9466
리기	-9.94669
▁맛집	-9.94672
▁잤어	-9.94726
▁맞을까	-9.94762
▁나아질	-9.94809
▁찌	-9.9481
능력이	-9.94861
▁버려	-9.94887
타	-9.94916
나게	-9.94926
그럼요	-9.94933
▁놓치	-9.94973
▁먹어보세요	-9.94976
▁착한	-9.95002
▁뭐할까	-9.95014
채	-9.95043
나만	-9.9508
▁아니지만	-9.95097
▁잊는다는	-9.95123
▁알기	-9.95174
▁있었	-9.95231
우연히	-9.95249
▁오랫	-9.95266
▁30	-9.95274
▁고쳐	-9.95296
▁고마워	-9.95297
▁자격증	-9.95319
▁사랑했나봐	-9.95358
▁쓸	-9.95369
▁위해서	-9.95385
▁헤어질	-9.95465
▁시키	-9.95531
▁보낼	-9.95559
▁속도	-9.95582
나서	-9.95704
▁복잡하겠	-9.95728
▁즐거	-9.95759
▁여자친구한테	-9.95809
▁널	-9.95821
▁느껴지	-9.95824
▁지내는	-9.95847
▁태어난	-9.95861
▁페북	-9.95905
▁치료	-9.95914
▁sns	-9.95946
집에	-9.9599
▁썸인가	-9.96011
▁모르게	-9.96017
▁왔습니다	-9.96027
▁당했어	-9.96061
지갑	-9.96067
▁그리움	-9.96067
▁허리	-9.96084
▁파도	-9.96238
▁봤어	-9.9627
▁그대	-9.96284
▁해야겠다	-9.96311
하늘	-9.96353
았어	-9.96359
▁타이밍	-9.96416
좋으면	-9.96453
▁해야할지	-9.96454
▁너에게	-9.96553
▁설	-9.96557
물리적	-9.96584
▁응원합니다	-9.96672
▁많아서	-9.96695
▁깨요	-9.96695
강	-9.96704
▁놀러가고	-9.96715
▁생활	-9.96717
▁금	-9.9676
▁하는건	-9.96777
▁지켜보	-9.96779
▁바라지	-9.96824
리가	-9.96933
▁알았어	-9.97042
▁편해	-9.97058
▁푸	-9.97075
할거야	-9.97156
▁은근	-9.9718
▁중입니다	-9.97197
▁심	-9.97246
▁노는	-9.97381
▁이기적인	-9.97457
하지만	-9.97536
▁카드	-9.97624
▁있을지	-9.9763
▁옴	-9.97709
상처받	-9.97738
▁잊으	-9.97946
▁싸웠	-9.97961
▁친해지는	-9.97972
려나	-9.97973
▁아니죠	-9.97991
▁부자	-9.98029
▁실감	-9.98096
▁무시하는	-9.98152
드세요	-9.98173
▁허	-9.98237
▁있음	-9.98282
▁참는	-9.98333
▁세상이	-9.98351
남들	-9.98363
▁알면	-9.984
사는	-9.98415
▁잘못이	-9.98442
▁재미없	-9.98499
함이	-9.9857
▁자연스러	-9.98608
▁높	-9.98809
네여	-9.98843
▁나에게	-9.98905
▁찾는	-9.98918
▁말하지	-9.98999
▁어렵네	-9.99076
▁인정하	-9.99144
▁착각	-9.99375
누구에게	-9.99404
▁주변에	-9.99442
▁심한	-9.99519
▁기다릴	-9.99734
.",	-9.99753
▁거면	-9.99769
▁끝났	-9.99831
▁아기	-9.99847
▁문신	-9.99935
력	-10.0005
웠	-10.0008
▁끝에	-10.0018
▁같지	-10.0032
▁회사에	-10.0036
나는	-10.0041
▁좋아하는거	-10.0042
아지	-10.0043
▁고치	-10.005
▁남을	-10.005
일이	-10.0051
▁관리하	-10.0058
귀엽	-10.0059
▁하던	-10.0063
▁무엇이	-10.0066
▁다르겠	-10.0068
▁올해	-10.0069
해줘	-10.0082
졌으면	-10.0083
▁있을까요	-10.0084
▁기본	-10.0106
▁시작해보	-10.0106
꾸	-10.0108
운명	-10.0111
았는데	-10.0124
▁먹으	-10.0128
▁맛있는	-10.013
▁긴장	-10.0132
기적	-10.0148
개	-10.0158
▁취해	-10.016
▁준비하는	-10.016
▁성격	-10.0168
행복	-10.0181
▁마음으로	-10.0182
래요	-10.0187
▁생긴다	-10.0199
불	-10.02
▁화장실	-10.0201
애매하	-10.0203
타기	-10.0206
호감	-10.0225
▁빌어	-10.0226
덜	-10.0232
▁휴가	-10.0242
▁멋있	-10.0244
탈	-10.0248
가지	-10.0257
▁드려	-10.026
▁신청	-10.0261
욕	-10.0264
▁비교하	-10.0266
이상형	-10.0267
▁동생	-10.0274
▁나눠	-10.0276
책	-10.028
▁싸움	-10.0282
▁맞을	-10.0282
조심	-10.0283
소개팅	-10.0288
달콤	-10.0318
놈	-10.0322
▁장소	-10.0325
▁편한	-10.0326
4	-10.0334
아닌	-10.0338
근처	-10.0345
SNS	-10.0346
달달	-10.0348
해봐요	-10.0352
보통	-10.0354
문득	-10.0354
믿음이	-10.0355
▁울	-10.0355
▁결혼하	-10.0357
완벽	-10.0358
가벼	-10.0362
따로	-10.0365
극	-10.0366
온	-10.0369
뒤	-10.0371
연인	-10.0374
그동안	-10.0375
▁무엇	-10.0384
깨	-10.0388
최	-10.0398
만해도	-10.0406
자세	-10.0407
잠이	-10.0414
스타일	-10.0431
방법	-10.0447
▁멍	-10.045
비가	-10.0451
일까요	-10.0452
나이	-10.0457
▁외	-10.0458
저한테	-10.0462
▁궁금	-10.0465
차분	-10.0471
▁기억이	-10.0474
인가봅니다	-10.0477
진다	-10.0484
▁삼	-10.0494
오해	-10.0499
▁미치겠	-10.0503
▁전남친이	-10.0513
상대에	-10.0535
되면	-10.055
▁울어	-10.0554
드려요	-10.0564
▁끝일	-10.0571
▁연락하	-10.0592
드려	-10.0598
▁같아서	-10.0614
없어	-10.0619
▁답이	-10.0632
▁뻔	-10.0638
▁가사	-10.0645
사정	-10.0677
능	-10.0678
잖아	-10.068
▁기간	-10.0689
▁필	-10.0691
▁도서관	-10.0693
되겠	-10.0696
했지만	-10.0701
밤에	-10.0716
▁취향	-10.0723
▁운동하	-10.0725
▁아닐까	-10.0731
해줄	-10.0737
▁받았	-10.0741
▁나중에	-10.0759
▁가능해	-10.0762
▁살면	-10.0768
▁맞아	-10.0768
▁나왔	-10.0788
말씀해	-10.0794
만한	-10.0799
▁나눠보	-10.0804
▁평	-10.0807
도전	-10.0816
▁거기까지였	-10.0822
▁그럴까	-10.0824
▁안되겠지	-10.0829
쯤	-10.0829
씨	-10.083
▁후련하	-10.0834
▁택시	-10.0836
흥	-10.0838
즈	-10.0838
▁찔	-10.0838
▁결혼적령기	-10.0838
▁셀카	-10.0838
▁아름답	-10.0838
▁앉	-10.0838
▁유효기간	-10.0838
꽤	-10.0838
노트북	-10.0838
동호회	-10.0838
쩍	-10.0838
▁여드름	-10.0838
출퇴근	-10.0838
강렬	-10.0838
▁괴로워	-10.0838
▁고쳐쓰는	-10.0838
▁단둘이	-10.0838
▁두려움	-10.0838
▁제주도	-10.0838
▁어필해	-10.0839
▁데려가	-10.0839
▁버티	-10.084
▁발목	-10.084
축하합니다	-10.084
▁아름다워	-10.0841
▁남편	-10.0841
▁잡으세요	-10.0841
▁맞추	-10.0842
▁흘려	-10.0842
▁깨닫	-10.0843
▁15	-10.0843
▁포장	-10.0844
줬는데	-10.0846
▁답답하네	-10.0846
했나	-10.0848
▁기울여	-10.0848
▁정리될	-10.0849
▁부드	-10.085
▁세워	-10.0852
시나	-10.0856
신혼여행	-10.0861
라니	-10.0861
▁삭제	-10.0863
▁좋으시	-10.0864
▁건조	-10.0867
▁점심	-10.0868
었습니다	-10.0869
▁어려	-10.0876
▁언젠	-10.0876
▁악몽	-10.0881
▁불안해	-10.0887
▁좋아했는데	-10.0887
▁일들이	-10.0888
▁베	-10.0896
▁빠져	-10.0901
▁멀리	-10.0901
▁정류장	-10.0902
▁기준	-10.0908
▁비난	-10.0911
▁예감	-10.0915
뿐	-10.0916
▁가치	-10.0916
▁안되는데	-10.0916
▁행복해질	-10.092
올	-10.092
산책	-10.0925
였	-10.0929
▁맛있	-10.0929
일차	-10.093
▁중요한데	-10.0939
왔는데	-10.0944
▁집착해	-10.0944
▁코스	-10.0946
▁많다	-10.0946
▁여름	-10.0953
▁잊혀질	-10.0955
▁싶다고	-10.0959
▁딴	-10.0963
▁땅	-10.0965
▁짠	-10.0965
▁땀	-10.0965
▁허전하	-10.0966
이번	-10.0966
▁이미	-10.0971
▁에휴	-10.0971
▁핑계	-10.0972
▁패턴	-10.0972
▁염색	-10.0972
▁업무	-10.0972
▁신경쓰	-10.0972
▁변한	-10.0974
▁콩깍지	-10.0975
▁외로움	-10.0979
▁고맙다	-10.0985
▁애기	-10.0987
▁걸려	-10.0989
시다	-10.099
▁호	-10.0993
야할까	-10.0995
취	-10.0998
▁먹었어	-10.101
▁봐서	-10.101
▁떨어지	-10.102
▁공감	-10.1021
▁생각할까	-10.1024
▁여자와	-10.1027
▁내요	-10.1029
▁끝을	-10.1034
▁참견	-10.1036
▁그녀에게	-10.1036
▁외롭	-10.1047
▁목표	-10.1047
▁비슷	-10.1056
▁군	-10.106
▁남자한테	-10.1061
▁노력하는	-10.1079
▁당연	-10.1086
▁사람인	-10.1089
▁될거예요	-10.1092
되는데	-10.1099
▁입지	-10.11
▁못하	-10.1112
노력	-10.1114
▁말라고	-10.112
▁거지	-10.1121
▁설렘	-10.1121
하는거	-10.1123
▁취직	-10.1123
▁가능해요	-10.1133
▁놈	-10.1136
▁그저	-10.1136
▁최	-10.1137
▁읽어	-10.114
외	-10.1141
▁잊어야	-10.1141
▁의외	-10.1154
▁기간이	-10.1157
▁어찌	-10.1167
▁되겠지	-10.1174
하겠습니다	-10.1175
▁전화가	-10.1179
▁상의	-10.1187
▁죄	-10.1193
뿐이	-10.1193
받고	-10.1194
▁무서운	-10.1195
▁귀찮	-10.1195
가능합니다	-10.1196
▁이어나가는	-10.1203
▁지난	-10.121
▁계획	-10.1214
듣기	-10.1219
▁집착하	-10.122
갔어	-10.1221
▁이성으로	-10.1226
▁정의	-10.1229
▁슬	-10.1234
▁착	-10.1245
▁걱정되겠	-10.1256
값	-10.1257
친구한테	-10.1259
드리	-10.1266
의미	-10.1267
▁됐	-10.1274
▁분명	-10.1275
▁알면서도	-10.1289
려주세요	-10.129
▁표현하는	-10.1294
시면	-10.1308
수도	-10.1324
▁한거	-10.1325
이라니	-10.1347
▁사과	-10.1357
▁고르	-10.1365
▁걸음	-10.1379
번호를	-10.1387
▁나가야	-10.1393
▁야경	-10.1403
▁별로라	-10.1406
▁샤워	-10.1412
오면	-10.1425
▁사람인데	-10.1426
국	-10.1437
▁미래	-10.1443
▁붙잡	-10.1454
하고싶어	-10.1458
니가	-10.1458
▁있었나요	-10.1458
양해	-10.1461
▁잡았	-10.1467
▁보여요	-10.1471
▁마음인	-10.1477
▁소화	-10.1482
▁본인	-10.1483
입	-10.1484
▁답답할	-10.1493
▁아침이	-10.1495
▁고민하	-10.1497
▁받아야	-10.1505
▁좋아한다	-10.1508
▁맞나	-10.1512
간다	-10.1513
▁가족이	-10.1519
▁이별하고	-10.1545
▁찾아오	-10.1552
▁전화하는	-10.1559
▁힘들겠어	-10.156
▁여행가	-10.1566
▁꺼	-10.1568
짧지	-10.1574
▁조심	-10.1575
뒤에서	-10.1578
▁마음만	-10.1582
▁알려	-10.1583
▁갔	-10.1585
▁이성	-10.1593
▁줄까	-10.1596
신경쓰이	-10.1602
사랑한	-10.1608
형이	-10.1608
데이트	-10.161
▁살아가	-10.1624
▁화가	-10.163
▁옷이	-10.1633
이길	-10.1639
▁연락해보	-10.1651
하고싶	-10.1654
▁못했	-10.1672
말해줘	-10.1674
▁헬스장에	-10.1687
자꾸	-10.169
편한	-10.169
색	-10.169
▁덜할	-10.1692
선물	-10.1709
▁간절하	-10.172
▁선생님	-10.1727
경	-10.1729
▁하려고	-10.1731
▁보게	-10.1737
▁늦어	-10.1739
▁병원	-10.1741
▁스타일이	-10.176
행	-10.1766
▁느껴	-10.1769
▁용기내	-10.1778
▁공부해야	-10.1794
▁살지	-10.1807
▁그만하고	-10.1821
▁세상에	-10.184
순간	-10.1848
카톡	-10.186
헤어진	-10.1863
얼굴	-10.1867
영상	-10.1872
▁헤어지면	-10.1883
▁쓰이	-10.1891
정리를	-10.1895
직	-10.19
▁끝인	-10.1902
학기	-10.1916
▁혼자만	-10.1918
울어	-10.1918
▁복잡하	-10.1923
없는	-10.193
▁잘해주는	-10.1932
▁좋을까요	-10.1939
▁하지마	-10.1939
순	-10.1942
공통	-10.1951
▁아니고	-10.1953
▁나온다	-10.1953
▁늘	-10.1955
청	-10.1959
▁죽고	-10.196
엄마	-10.1969
▁챙겨주	-10.1979
심경	-10.1986
상담	-10.1986
분위기	-10.1993
▁연애하고	-10.1994
사귀고	-10.1994
도서관	-10.1995
역	-10.1995
▁있어야	-10.1996
▁실망	-10.1997
소원	-10.1997
보험	-10.1999
냉장고	-10.1999
타이밍이	-10.2001
알면서도	-10.2002
계획	-10.2011
조건	-10.2013
바빠	-10.2015
궁	-10.2015
분명	-10.2017
삶	-10.2017
컨	-10.202
좋아하면	-10.2021
똑같은	-10.2022
버려	-10.2026
빌려	-10.2028
깊은	-10.2028
꿈에	-10.2029
위로	-10.203
빼	-10.203
봄	-10.203
판	-10.2032
▁사람인가	-10.2032
최선	-10.2033
옴	-10.2033
커플	-10.2035
행복한	-10.2037
▁가치관	-10.2038
슬	-10.2039
▁단계	-10.2042
▁받아보	-10.2044
뿌	-10.2045
정리가	-10.2045
▁겨	-10.2054
인내	-10.2066
언	-10.2067
후회할	-10.2071
▁있었어	-10.2075
새로	-10.2076
버리	-10.2078
▁결정이었	-10.209
▁삭제하는	-10.2091
▁이상형이	-10.21
데요	-10.2111
▁째	-10.2114
건데	-10.212
▁슬프	-10.212
나의	-10.2126
머	-10.2146
연락해	-10.2158
맛난	-10.217
카드	-10.2172
있지	-10.2186
▁나네	-10.2188
했다	-10.2192
▁이러	-10.2193
▁못하면	-10.2201
▁돌리	-10.2207
▁노	-10.2225
▁몇일	-10.2237
▁공시	-10.2242
연애에	-10.2244
▁보내주	-10.2259
만나지	-10.2271
▁수다	-10.2278
보내는	-10.228
기다리지	-10.2288
▁돌아오	-10.2289
▁성공하	-10.229
야하나	-10.2292
▁일년	-10.23
▁멋	-10.2301
▁헤어졌	-10.2302
▁인간	-10.2307
▁흔들리	-10.2311
▁부담스러워	-10.2314
▁뭔	-10.2317
▁챙	-10.2321
▁기원	-10.2328
하던	-10.2339
▁의지	-10.235
▁무시해	-10.2351
분이	-10.2354
소중	-10.2355
▁짱	-10.2368
침이	-10.2397
리면	-10.2397
▁헤어져	-10.2399
실감	-10.2405
척	-10.2415
워질	-10.2417
복잡한	-10.2418
▁흘러	-10.2433
그만	-10.2435
셨네요	-10.244
▁노력해보	-10.2441
선이	-10.2446
▁받아들이	-10.2447
▁젖	-10.2453
▁영원	-10.2454
▁짜증	-10.2455
아서	-10.2456
찰	-10.2468
카	-10.2472
이는	-10.2473
빛	-10.2476
끝이	-10.248
▁힘드신가	-10.248
▁메뉴	-10.2481
▁탔	-10.2483
▁부탁해	-10.2484
▁화내	-10.2485
▁샀	-10.249
▁만족	-10.2497
정규직	-10.2501
잼	-10.2504
벅	-10.2505
합격	-10.2505
▁스터디	-10.2505
▁낚시	-10.2505
▁눈썹	-10.2505
▁보이스피싱	-10.2505
▁셀프웨딩	-10.2505
▁쉴	-10.2505
▁스타트업	-10.2505
▁어젯밤	-10.2505
▁이벤트	-10.2505
▁잠재력	-10.2505
▁지겨워	-10.2505
▁화이트데이	-10.2505
득템	-10.2505
바퀴	-10.2505
욱	-10.2505
팸	-10.2505
현금영수증	-10.2505
▁기프트콘	-10.2505
▁부딪혔	-10.2505
▁생리통	-10.2505
▁체육대회	-10.2505
▁관련	-10.2505
▁낭비	-10.2505
센터	-10.2505
▁추석	-10.2505
▁누굴	-10.2505
강습	-10.2505
칼로리	-10.2505
베풀	-10.2505
▁실례	-10.2505
▁소개시켜	-10.2505
▁치유	-10.2506
형편	-10.2506
▁스테	-10.2506
▁소유	-10.2506
▁마주쳐	-10.2506
▁안경테	-10.2506
애정표현	-10.2506
▁교양	-10.2506
받았어	-10.2506
▁조카	-10.2506
▁분담	-10.2506
▁외국인	-10.2506
▁의견	-10.2507
▁잃어버	-10.2507
▁택시비	-10.2507
신고하	-10.2507
▁추운	-10.2508
▁걱정된다	-10.2508
테리	-10.2508
▁소심해	-10.2509
▁시간표	-10.2509
▁우린	-10.2509
▁대체	-10.2509
동감	-10.251
▁달라져	-10.251
▁노려	-10.251
▁놀아줘	-10.251
▁동성	-10.2511
▁더러워	-10.2512
▁추천해줘	-10.2512
▁부부	-10.2512
▁부탁	-10.2513
▁아님	-10.2513
지긋	-10.2515
▁대우	-10.2515
▁넘었네	-10.2516
▁이별했습니다	-10.2516
공원	-10.2517
▁장점	-10.2518
▁일어날	-10.2519
▁끝났으면	-10.252
▁자취	-10.252
▁치	-10.2522
▁한강	-10.2522
스트레칭	-10.2526
▁나누	-10.2526
행복해보여	-10.2527
맥이	-10.2528
▁낫겠지	-10.2528
▁꺼내	-10.253
▁먹었는데	-10.2531
▁불공평해	-10.2531
▁끝날	-10.2531
▁줄어들	-10.2531
▁보답	-10.2533
간절	-10.2534
오네	-10.2536
▁같음	-10.2536
▁행복할까	-10.2542
▁수영	-10.2543
▁별로야	-10.2544
▁전세	-10.2546
바늘	-10.2547
▁웃어보세요	-10.2549
인공	-10.255
▁응원해요	-10.2551
아주	-10.2556
▁반장	-10.2558
때도	-10.2563
▁증오	-10.2563
▁어색해	-10.2564
▁찼	-10.2568
▁낳	-10.2568
▁챙기	-10.2574
▁비싼	-10.2574
▁최근	-10.2575
▁성형	-10.2575
▁축복	-10.2576
▁차례	-10.2577
▁새출발	-10.2577
▁표정	-10.2578
▁후유증이	-10.2579
▁태어나	-10.258
짐에	-10.2582
▁기울이	-10.2582
▁연휴	-10.2588
▁아닌거	-10.259
위치	-10.2591
바이	-10.2592
▁참았어	-10.2593
▁받으면	-10.2598
인걸까	-10.2599
▁갔는데	-10.2602
▁좋을거	-10.2604
▁복잡한가	-10.2605
▁교	-10.2607
질러	-10.2611
▁안되나	-10.2611
▁맛있어요	-10.2614
따뜻하	-10.2615
▁돌아가고	-10.2617
▁멀어지	-10.2618
▁힘든데	-10.2621
하려는	-10.2622
▁오랜	-10.2623
▁무기력	-10.2626
▁판단	-10.263
▁언제까지	-10.2633
안녕하세요	-10.2641
▁순간이었	-10.2641
▁갚	-10.2644
▁대답	-10.2652
▁며	-10.2658
▁고기	-10.2659
▁메모	-10.2662
▁망가	-10.2662
▁의욕	-10.2665
▁나갈	-10.2665
▁에너지	-10.2665
▁벽	-10.2668
▁성향	-10.2668
▁여우	-10.267
▁시간이겠	-10.2674
▁기다렸	-10.2674
는구나	-10.2675
▁정신차리	-10.2676
▁위험해	-10.2678
▁길러	-10.2683
▁끝났네	-10.2689
망했어	-10.2689
마음이라	-10.269
▁반복	-10.2699
▁성별	-10.2701
부지	-10.2713
그럴만	-10.2713
▁높아	-10.2717
▁전기	-10.2717
▁빠졌	-10.2718
▁사수	-10.272
▁크기	-10.2721
리를	-10.2733
▁밀어	-10.2733
▁사랑받고	-10.2734
장이	-10.2736
야할	-10.2739
▁배우자	-10.2742
▁다가오	-10.2747
▁경쟁	-10.2751
▁싱숭생숭	-10.2751
▁센스	-10.2752
▁노후	-10.2753
▁있대	-10.2754
▁왔나	-10.2754
책임	-10.2754
주지	-10.2755
▁베터리	-10.2756
▁차라리	-10.2757
▁하다보	-10.2764
▁계기	-10.2767
▁없지만	-10.2768
금연	-10.2768
▁티내	-10.2771
▁업	-10.2785
▁적어보	-10.2787
들고	-10.2792
▁초대	-10.2809
▁클	-10.2814
▁나아졌	-10.2816
▁예민해	-10.2816
▁행운	-10.2822
▁그만두	-10.2828
▁아무렇지	-10.2834
▁뿌	-10.2835
려구	-10.2841
▁벚꽃	-10.2841
▁점이	-10.2843
▁받기	-10.2848
봐야지	-10.2854
▁맞지	-10.2855
리지	-10.2859
▁마시면	-10.286
▁포기하는	-10.286
▁올까	-10.287
▁지하철에	-10.2874
▁심장	-10.2877
당황	-10.2879
친구와	-10.2879
▁즐기면	-10.2881
▁분들	-10.2885
줄게	-10.2889
독	-10.2892
▁성적	-10.2898
▁이뻐	-10.2899
달라지	-10.2905
▁삭제하	-10.2906
▁남았나봐	-10.2908
▁잠시	-10.291
▁칭찬해주	-10.2916
▁준비중	-10.2921
야겠지	-10.2924
▁사과하	-10.2925
▁있는거	-10.2926
▁들으면	-10.2926
▁바지	-10.2928
자신과	-10.293
▁좋아하시	-10.2931
▁바꿀까	-10.2933
▁진실	-10.2937
▁아닌가봐	-10.2942
▁이불	-10.2942
▁일에	-10.2954
▁표현해보	-10.2954
이제는	-10.2958
▁재밌다	-10.296
▁건가요	-10.2968
▁않겠	-10.2972
▁바꿔야	-10.2974
▁먹지	-10.2981
▁소비	-10.2982
하며	-10.2987
보며	-10.2989
▁만나보	-10.2992
3	-10.3007
두근거리겠	-10.3007
▁때문이	-10.302
▁여행이	-10.3036
▁받아들여야	-10.3045
▁그립	-10.3048
▁물어보면	-10.305
▁반응	-10.3059
▁좋아한다는	-10.306
▁힘드시겠	-10.3066
▁똑같은	-10.3066
▁일하는	-10.3068
▁물어보고	-10.3076
▁결	-10.3077
▁칭찬	-10.3084
스러워	-10.3085
▁남아	-10.3093
▁말아야	-10.3124
▁했어요	-10.3124
인가요	-10.3135
감사	-10.3137
될까	-10.314
▁봐주	-10.3141
월	-10.3149
가기	-10.315
▁존중해	-10.3153
▁씻	-10.3163
▁견디	-10.3166
▁깊은	-10.3167
▁사람이니까	-10.3177
음이	-10.3178
▁그동안	-10.3179
짧	-10.3181
▁요리	-10.3183
외로	-10.3185
▁했다	-10.3192
났어	-10.3195
▁사내	-10.3201
셨나	-10.3211
▁마스크	-10.3221
반지	-10.3228
▁나아	-10.3238
▁첫사랑이	-10.3257
▁저한테	-10.3262
줘야	-10.3269
▁얻	-10.3279
성공적	-10.3282
▁위기	-10.3283
언제	-10.3291
▁행복해지	-10.3306
느냐	-10.331
▁오늘이	-10.3313
▁뭐하는	-10.3316
▁알아가	-10.3316
적극적	-10.3318
▁고고	-10.3339
▁들리	-10.3343
▁재밌는	-10.3345
▁해드	-10.3354
지기	-10.3365
▁받은	-10.3382
▁놀까	-10.3403
▁아껴	-10.3413
▁어장인	-10.343
곳	-10.3445
간단하	-10.3447
해주는	-10.3448
▁괜찮아지	-10.3454
▁행동이	-10.3463
▁소문	-10.3467
▁사람들에	-10.3478
▁높겠	-10.3484
▁걸까요	-10.3503
재미	-10.3506
▁참지	-10.3513
▁늦은	-10.3515
뜻	-10.3527
밖	-10.3535
이상	-10.3549
▁미치	-10.3554
으려면	-10.3566
으니	-10.357
올려	-10.3575
▁통	-10.3586
하긴	-10.359
슬프네	-10.3603
▁손해	-10.3604
▁축하해	-10.3604
▁답답한	-10.3605
힘내	-10.3605
▁바르	-10.3606
▁효	-10.3608
하겠네	-10.363
▁거울	-10.3632
▁집중하	-10.3645
숨	-10.3656
백	-10.3657
▁드릴	-10.3665
가족	-10.3667
▁소식	-10.367
▁표시	-10.3676
발이	-10.3691
여자친구	-10.3692
로봇	-10.3702
▁웃는	-10.3703
잠	-10.372
는걸	-10.3726
▁동생이	-10.3737
▁돌려보	-10.3737
▁술마시	-10.3738
▁견디고	-10.3739
▁사람일	-10.3747
마지막	-10.375
▁나지	-10.3751
그럼	-10.3752
▁풀렸	-10.376
▁해주면	-10.3762
▁결혼해야	-10.3767
▁언젠가	-10.3768
▁공부할	-10.3769
▁마셨	-10.3786
▁끝인가	-10.3787
▁가만	-10.3801
▁자는	-10.3808
이래	-10.381
▁잘해주	-10.3814
아침	-10.3833
있습니다	-10.3841
꼬	-10.3843
▁때문	-10.3857
▁그리운	-10.3869
해보고	-10.387
▁몰랐어	-10.3871
받은	-10.3877
▁보이네	-10.3886
▁하니까	-10.3892
▁비슷한	-10.3894
려면	-10.3896
▁괜찮다	-10.3914
▁붙	-10.3918
모습	-10.3929
연락처	-10.3935
▁한다는	-10.3936
얼마	-10.3938
엄청	-10.3941
▁많은가	-10.3941
5	-10.3945
찬	-10.3945
특	-10.395
둔	-10.3951
그때	-10.3955
출	-10.3965
▁좋고	-10.3968
질투	-10.3968
푸	-10.3974
잊는	-10.3974
제자리	-10.3978
▁필요한가봐	-10.398
뭐라	-10.3981
난다	-10.3982
두려워	-10.3984
달라진	-10.3988
프로포즈	-10.3989
사람들이	-10.399
연예인	-10.3991
외모	-10.3993
사진	-10.3994
거짓말	-10.3994
버릴	-10.3996
소비	-10.3997
왕	-10.4
이성으로	-10.4
신중	-10.4002
군대	-10.4004
공부하면	-10.4004
특별	-10.4005
▁도와주	-10.4006
자주	-10.4006
였을	-10.4006
어쩔	-10.4008
무서운	-10.4008
솔직한	-10.4011
'	-10.4012
▁바꿀	-10.4015
▁깎	-10.4015
지마	-10.4024
▁이직	-10.4024
이럴	-10.4024
버렸어	-10.4025
멍	-10.4026
있음	-10.4032
계	-10.4035
과식	-10.4038
진실	-10.4043
우니까	-10.4044
우연	-10.4048
설	-10.4053
▁놀러가	-10.406
▁웃어	-10.4065
은근	-10.4067
놓지	-10.4069
뭐라고	-10.4071
달이	-10.4072
예의	-10.4089
▁호감이	-10.4109
▁있으신가	-10.4112
▁낼	-10.4116
▁맘같	-10.4122
가봅니다	-10.4122
▁외로	-10.4126
▁보다	-10.4133
이불	-10.4135
해져	-10.415
▁무너	-10.4172
▁연락해보는	-10.4177
관	-10.4178
▁헤어	-10.4184
지칠	-10.4185
치기	-10.4197
추억이	-10.42
▁친	-10.4201
▁성	-10.4202
감정이	-10.4206
답답한	-10.4208
▁이별에	-10.4209
▁참다	-10.4225
▁하시	-10.4229
▁닮	-10.4234
약이	-10.4244
신나	-10.4252
아프지	-10.4271
인기	-10.4277
아픈	-10.428
였나	-10.4282
지난	-10.4283
축하해주	-10.4285
다양하	-10.4287
▁뒤에	-10.43
▁먹기	-10.4306
▁까먹	-10.4307
▁때문일	-10.4314
▁유학	-10.4315
▁만나러	-10.4316
▁다가왔	-10.4326
▁왔나봐	-10.4349
▁좋았	-10.4351
▁기억해	-10.4353
▁태	-10.4355
▁심어	-10.4358
▁때려	-10.4361
▁이뤄	-10.4366
▁불행	-10.4376
▁누	-10.4381
▁결혼해	-10.4383
부를	-10.4384
▁운명이	-10.4389
▁보일	-10.4393
▁심심	-10.4396
력이	-10.4404
▁아픔이	-10.4416
있어요	-10.4434
▁면도	-10.4439
▁이용해	-10.4445
술이	-10.4448
어디	-10.4451
▁20	-10.4452
신이	-10.4454
▁점심시간	-10.4466
▁아니라는	-10.4469
▁받아들	-10.4471
있을	-10.4472
랬	-10.4479
▁타이밍이	-10.4488
▁안부	-10.449
탕	-10.449
념	-10.4491
▁들어왔	-10.4492
례	-10.4494
▁지우	-10.4494
▁발렌타인데이	-10.4495
당신만	-10.4496
▁다닐	-10.4498
▁사라질	-10.4499
▁낮	-10.4503
▁땡	-10.4505
윗	-10.4505
딩	-10.4505
▁긁었어	-10.4505
▁금수저	-10.4505
▁뒷담화	-10.4505
▁리폼	-10.4505
▁머리카락	-10.4505
▁섬유유연제	-10.4505
▁셀프	-10.4505
▁왠	-10.4505
▁유부남	-10.4505
▁좋으련만	-10.4505
▁컴퓨터	-10.4505
▁특징	-10.4505
가볍	-10.4505
놀이동산	-10.4505
댈	-10.4505
랜선	-10.4505
지저분해	-10.4505
짜증날	-10.4505
쫌	-10.4505
찐	-10.4505
츠	-10.4505
툰	-10.4505
힐	-10.4505
▁축의금	-10.4505
▁층간소음	-10.4505
▁팀	-10.4505
당분간	-10.4505
▁배터리	-10.4505
▁아팠	-10.4505
릅	-10.4505
▁비하하지	-10.4505
▁몸무게	-10.4505
▁컴터	-10.4505
▁농담	-10.4505
▁편의점	-10.4505
▁카페에	-10.4505
▁격려	-10.4505
▁신경써	-10.4505
▁맞춤법	-10.4506
▁끓여	-10.4506
▁감싸	-10.4506
▁화장품	-10.4506
▁드라이	-10.4506
▁시골	-10.4506
▁서류에서	-10.4507
▁유행	-10.4507
▁망했다	-10.4507
▁변덕스럽	-10.4507
▁기다림	-10.4507
▁지루	-10.4508
▁무너져	-10.4508
▁웃겨	-10.4508
▁원인이	-10.4509
▁먹어야겠다	-10.4509
▁빨래	-10.4509
▁똑같아	-10.4509
▁믿으세요	-10.451
▁늦잠	-10.451
고마운	-10.451
▁간식	-10.451
▁크시겠	-10.451
▁신경쓰여	-10.4511
▁미치겠습니다	-10.4511
▁마실까	-10.4511
연락두절	-10.4511
▁찾아온	-10.4512
▁매력이	-10.4512
▁갚아	-10.4512
▁어리게	-10.4513
▁차갑게	-10.4513
려도	-10.4513
활용	-10.4514
▁나가볼까	-10.4514
▁이틀	-10.4515
▁서운해	-10.4515
쟁이	-10.4517
▁군인	-10.4517
▁한숨만	-10.4518
▁통장	-10.4519
▁가까	-10.4519
▁좋아해줬으면	-10.4519
▁못참고	-10.452
▁한계	-10.452
▁후배	-10.4521
▁양말	-10.4521
주째	-10.4522
거겠죠	-10.4523
▁친해질	-10.4524
플라	-10.4524
▁치워	-10.4526
▁지낼	-10.4526
▁두셨네요	-10.4527
▁좋더라	-10.4527
▁미안	-10.4529
▁미치겠어	-10.4529
▁개강	-10.4529
▁마실	-10.4531
▁쌓인	-10.4531
냐구	-10.4531
▁미워하지	-10.4534
▁어른	-10.4534
무관심	-10.4534
▁수업	-10.4537
드립니다	-10.4538
▁없으니까	-10.4541
▁잊으려고	-10.4541
▁먼	-10.4542
▁나갔어	-10.4543
▁해야돼	-10.4544
▁하게	-10.4548
▁재밌어	-10.4551
▁다짐	-10.4557
년연애	-10.4557
▁필요했을	-10.4558
▁가야겠죠	-10.456
▁사냐	-10.4562
▁내일이	-10.4563
▁걸린	-10.4563
▁카	-10.4564
▁들까	-10.4566
담	-10.4568
뽑기	-10.4568
▁지우고	-10.4571
▁연락했는데	-10.4571
▁똑똑해	-10.4574
끝낼	-10.4575
▁사겨도	-10.4577
▁분노	-10.4578
▁밟	-10.4581
▁가스	-10.4581
▁탈퇴	-10.4584
▁슬프게	-10.4584
▁보냈어	-10.4584
돌	-10.4585
▁뒷	-10.4586
▁지나면	-10.4586
▁주택	-10.4587
▁가늠	-10.4587
▁다툼	-10.4587
▁설명	-10.4588
▁쌩얼	-10.4588
▁단호	-10.4588
▁슬픔	-10.4588
▁평온	-10.4588
▁프로필	-10.4588
▁이별이란	-10.4589
▁축제	-10.4589
▁보고싶네	-10.459
▁도대체	-10.459
▁월요일	-10.4591
▁혼술	-10.4592
▁뭐임	-10.4592
▁편하겠죠	-10.4594
▁잤	-10.4594
▁익숙해질	-10.4595
▁소주	-10.4597
복이	-10.46
좋았	-10.46
▁무거워	-10.4601
▁필름	-10.4603
▁보자고	-10.4603
다행이	-10.4607
▁좋을지	-10.4609
▁얘	-10.461
▁좋대	-10.4611
▁흘리	-10.4611
▁연애하는데	-10.4615
▁아닌가요	-10.4617
한국	-10.4619
▁어려울	-10.4619
그렇지	-10.4622
▁다르지	-10.4627
▁부담스러워할까	-10.4629
마음정리	-10.463
▁심심해	-10.4635
▁덕	-10.4637
▁당한	-10.4642
▁키울	-10.4643
▁괜찮다면	-10.4643
▁있었는데	-10.4644
▁팔아	-10.4644
▁오려나	-10.4645
▁알았	-10.4645
▁후회하	-10.4646
들은	-10.4648
▁놓으	-10.4649
그러	-10.465
▁찌질한	-10.4651
▁헤어지기	-10.4652
▁익숙해지지	-10.4653
그걸	-10.4657
▁방식	-10.4661
나보다	-10.4665
▁준비할	-10.4666
▁견뎌내	-10.4669
▁할줄	-10.4672
주면	-10.4673
▁괜찮지	-10.4678
▁덜어	-10.4679
▁피곤한	-10.4686
▁첫눈	-10.4694
▁깨달음	-10.4695
▁읽씹	-10.4696
▁즐겁	-10.4696
00	-10.4696
▁소모	-10.4697
▁일인	-10.47
▁마침표	-10.4701
▁케이스	-10.4701
▁자존심	-10.4703
▁트라우마	-10.4704
▁봉사활동	-10.4704
▁취미생활	-10.4705
낭만적	-10.4706
▁뭐하냐	-10.4709
▁서운하	-10.471
▁자세	-10.4716
▁떠났	-10.4724
▁구멍이	-10.4732
▁말했어	-10.4741
았으면	-10.4747
▁여자에게	-10.4754
▁달려있	-10.4759
▁많았나	-10.476
▁가족들	-10.4763
▁되었네	-10.4766
시원하	-10.4768
▁찾	-10.478
▁창업	-10.4785
▁하루에도	-10.4786
▁벗	-10.4787
▁났나봐	-10.4787
놀랐	-10.4787
▁충격	-10.4795
▁빵	-10.4795
좋았으면	-10.4804
지가	-10.4804
▁신뢰	-10.4808
▁애교	-10.4809
▁들을	-10.481
▁매너	-10.481
좋아요	-10.4811
▁썸일	-10.4813
▁자괴감	-10.4814
▁의미부여	-10.4817
참고	-10.4831
▁영원한	-10.4835
▁생각날	-10.4836
▁받아들이기	-10.4837
갈수록	-10.4837
▁여기까지	-10.4843
▁먹어야	-10.4847
▁봤네	-10.4852
▁확인하는	-10.4854
▁켜	-10.4857
▁이럴	-10.4858
▁나타나	-10.486
▁멀었	-10.4863
가능하면	-10.4869
아마	-10.4869
▁학교에	-10.4871
만난	-10.4876
▁고백할까	-10.489
▁새해	-10.4891
▁고백해	-10.4892
▁치매	-10.4893
▁모를	-10.4901
학원	-10.4915
▁자다가	-10.4917
코인	-10.4918
▁답답하다	-10.4923
▁읽어보	-10.4928
▁별거	-10.4932
▁만들었어	-10.4939
연락하면	-10.4942
▁해보	-10.4948
▁속은	-10.4953
▁떡	-10.4955
▁ᄒᄒ	-10.4962
▁울적해	-10.4972
▁흐르는	-10.4981
▁원망	-10.4981
▁어떻게해	-10.4992
▁했을	-10.4993
▁남길	-10.4994
▁들으	-10.4994
▁몸에	-10.4996
▁안에	-10.5003
▁멋지	-10.5006
▁하셨나	-10.501
때로	-10.5014
사람이	-10.5014
함께할	-10.5014
사람에게	-10.5029
▁주말이네	-10.5034
했네요	-10.5042
살아	-10.5042
▁간사하	-10.5046
▁프로포즈	-10.5049
▁지칠	-10.5053
▁것만	-10.5053
▁결혼한	-10.5056
▁찬	-10.5076
▁나아지	-10.5082
▁하다	-10.5089
▁솔직한	-10.5095
해졌	-10.5096
▁연속	-10.5114
▁늦는	-10.5122
년만	-10.5123
썸이	-10.5131
▁당황했	-10.5136
았습니다	-10.5142
셨어	-10.5144
▁이어주	-10.5156
▁냉장고	-10.516
왔다	-10.5171
▁조건	-10.5171
▁너무나	-10.5177
▁행	-10.5177
▁오지	-10.5186
▁뻔했	-10.5203
▁키우는	-10.5213
▁실수한	-10.5214
한거	-10.5215
▁사랑한다는	-10.5216
▁완벽	-10.5224
▁나나	-10.5231
봤	-10.5238
▁잘못된	-10.5242
▁접어두	-10.5261
▁근처	-10.5262
▁어울	-10.527
▁불면증	-10.5275
무시하	-10.5276
▁될지	-10.5279
착	-10.528
▁새로	-10.5284
▁만들기	-10.5284
▁깔끔	-10.53
라는게	-10.5302
▁이루어	-10.5307
▁적이	-10.5309
▁적응해야	-10.5309
▁결정이	-10.531
▁들어올	-10.5312
▁겨울	-10.5323
▁아니네	-10.5326
납니다	-10.5331
▁부족한가	-10.5334
▁잡는	-10.5337
▁얘기해	-10.5337
▁내기	-10.5343
▁용서하	-10.5343
하나봐	-10.5343
▁철	-10.5349
▁연애하는	-10.5352
주고	-10.5357
셨	-10.5359
먹	-10.5362
혼자서	-10.5376
▁안주	-10.5378
▁소	-10.5381
석	-10.5384
▁아이돌이	-10.5384
▁알지	-10.5384
피곤	-10.5412
맛있을	-10.5415
▁빌	-10.542
▁위험	-10.5426
▁성장하	-10.5427
리세요	-10.5446
▁공부해	-10.5453
각이	-10.5459
할지도	-10.546
▁인연이었	-10.5469
사람들	-10.5482
▁힘드	-10.5509
▁안하지	-10.551
버는	-10.5516
운을	-10.5519
쉬	-10.5521
이가	-10.5522
성공하	-10.5523
▁검색	-10.5539
▁갖자	-10.5557
내고	-10.5574
▁커지	-10.5576
▁우리집	-10.5584
치는	-10.5595
렸나봐	-10.5597
▁술먹	-10.56
▁거짓말이	-10.5602
▁후회해	-10.5605
하는건	-10.561
▁밀당	-10.5622
▁닫	-10.5637
▁없는거	-10.5641
▁사나	-10.5651
였나봐	-10.5655
▁무시	-10.5666
▁절약	-10.5682
▁정리해	-10.5684
말씀	-10.5686
▁입을	-10.5705
우는	-10.5707
▁먹은	-10.5719
▁궁금하	-10.5723
▁된다	-10.5729
▁아껴주	-10.5733
여자들이	-10.5738
아는데도	-10.574
▁모으	-10.5744
▁어떻	-10.5745
▁대화하는	-10.5745
▁자신만	-10.5747
인거	-10.5757
▁학생	-10.576
▁평가	-10.5779
▁여사친	-10.5789
ᄒᄒ	-10.5798
▁트	-10.5808
▁큰일	-10.5815
▁당황	-10.5825
▁이별하는	-10.5842
▁끼	-10.5856
▁학기	-10.5857
▁후회할까	-10.5885
▁소문이	-10.5891
~~	-10.5901
▁아니지	-10.5903
▁지났	-10.5904
▁힘들까	-10.5909
보여요	-10.5928
길게	-10.5944
되어	-10.5951
▁끊는	-10.596
▁이러는	-10.5963
근	-10.5981
라서	-10.5988
▁애매	-10.5992
▁지났어	-10.5993
그분에	-10.5996
▁도와	-10.6002
▁무리	-10.6009
▁재밌을	-10.6023
▁꼬	-10.6029
▁생일이	-10.6036
▁못난	-10.6051
▁못하겠	-10.607
버	-10.6072
▁응원	-10.6073
절	-10.6078
▁바보같	-10.6078
나가는	-10.6078
후회하	-10.6081
은행	-10.6082
▁어장	-10.6083
▁빠	-10.6104
▁쓰면	-10.6111
▁서운	-10.6112
▁뭐하면	-10.6122
랑이	-10.6139
좋	-10.6139
▁되는거	-10.6146
▁받아들여	-10.6155
그녀	-10.6156
▁남는	-10.6178
해야겠죠	-10.6189
쪽	-10.6191
을거예요	-10.6191
유	-10.6192
▁바디	-10.62
▁서	-10.6221
선생님	-10.6236
▁제안	-10.624
▁혼자서	-10.6247
쓰지	-10.6248
웃	-10.6252
▁성장	-10.6254
미	-10.6256
▁이루	-10.6271
▁모아야	-10.6276
▁결혼하고	-10.6284
봤어	-10.6285
▁혼자인	-10.6285
▁깊었	-10.6303
넘	-10.6304
▁답답	-10.6307
잔	-10.6307
퍼	-10.6312
까운	-10.6314
▁사랑하는지	-10.6319
늦	-10.6322
향	-10.6326
궁금할	-10.6327
야경이	-10.633
하는지	-10.6333
부담스러운	-10.634
▁타나	-10.6343
설레	-10.6343
문제	-10.6351
▁척하	-10.6352
핸드폰	-10.636
되길	-10.6366
이해할	-10.6369
견	-10.6376
못했던	-10.6379
▁해줄	-10.6386
예뻐	-10.6386
▁건데	-10.6387
확인해	-10.6389
헤어지	-10.639
▁힘들고	-10.6394
들면	-10.6394
▁불편	-10.6397
헤어지고	-10.6404
맞는	-10.6409
워서	-10.6412
커피향	-10.6416
빨리	-10.6418
공허함이	-10.6419
▁반에	-10.6419
되지	-10.6419
변하는	-10.6421
자연스	-10.6422
벌써	-10.6423
지나간	-10.6423
학교	-10.6424
애틋	-10.6427
성격	-10.6428
영	-10.643
구경	-10.6437
S	-10.644
갑니다	-10.6446
믿음	-10.6447
회	-10.6452
맨날	-10.6452
자존감	-10.6452
▁열어	-10.6453
사회생활	-10.6453
싶다	-10.6454
▁기다	-10.6455
꿀	-10.6457
몇	-10.6457
비싸	-10.6462
갖	-10.6464
행동	-10.6467
욕심	-10.6467
받으세요	-10.6471
흥미	-10.6471
방학이	-10.6472
월급	-10.6473
기세요	-10.6473
햇	-10.6474
▁남자분들	-10.6474
주식	-10.6476
잊어버리	-10.6476
다이어트	-10.6476
원망	-10.6477
응원합니다	-10.6482
빈	-10.6482
장거리	-10.6483
도와주	-10.6484
여러	-10.6484
오랜만에	-10.6486
누군가	-10.6487
잇몸	-10.6488
뒀	-10.649
쪄	-10.649
▁예뻐지	-10.649
▁아물	-10.649
을때	-10.6491
밀당	-10.6491
휴식	-10.6492
동물	-10.6493
다니는	-10.6493
육아	-10.6494
잘못	-10.6496
처리	-10.6496
벚꽃	-10.65
▁오해하	-10.6501
거절	-10.6501
설렘	-10.6502
그리고	-10.6504
괜	-10.6505
선배	-10.6505
A	-10.6506
불행	-10.6507
눈물	-10.651
멋지	-10.6511
호의	-10.6512
인간	-10.6512
▁이기적이	-10.6515
놔	-10.6519
아플	-10.6521
푹	-10.6521
뜨	-10.6521
실내	-10.6527
빨	-10.6528
분들	-10.6531
▁불편하겠	-10.6533
▁변해	-10.6534
클	-10.6537
잊을	-10.6541
▁칼	-10.6542
향이	-10.6544
벗어나	-10.6544
그러는	-10.6548
도전해	-10.6552
가고	-10.6571
발전	-10.6571
별거	-10.6577
속이	-10.6577
기본	-10.658
▁지르	-10.6582
눈치	-10.6582
회사에서	-10.6586
▁의지해	-10.659
▁않지	-10.6597
골	-10.6601
▁솔직	-10.6602
높이	-10.6602
행복하	-10.6611
▁맞춰주	-10.6623
행운	-10.6625
▁흐르	-10.6631
인건가	-10.6634
▁마주	-10.6635
해주지	-10.6636
기한	-10.6636
지금보다	-10.6637
▁왕따	-10.6637
정리	-10.6644
연락해도	-10.6646
▁많아지	-10.6646
얼굴이	-10.6647
▁잠수이별	-10.6647
▁실	-10.6657
아무렇지	-10.6659
사랑하면	-10.6664
연락할	-10.6667
가봐	-10.6674
▁거기까지	-10.6678
그대로	-10.668
▁배워보	-10.6693
▁연습해	-10.6698
▁키워	-10.6699
몸에	-10.6702
피곤한	-10.6708
▁않았을	-10.6748
▁세달	-10.6753
차별	-10.6759
▁막히	-10.6763
▁듣는	-10.6778
입을	-10.678
▁디	-10.678
▁태어	-10.6793
▁감정에	-10.6794
▁뜨	-10.6803
▁아니었	-10.6821
주변에	-10.6825
▁피곤하	-10.6829
진심이	-10.6829
렸	-10.6846
예쁜	-10.6854
연이	-10.6859
인생이	-10.6859
▁사귀면	-10.6859
▁이기	-10.6878
▁부담스러워하	-10.6893
압	-10.6907
▁아깝	-10.6909
▁걸리	-10.6909
롭	-10.6912
여기	-10.6914
중입니다	-10.692
▁지쳤	-10.6921
▁맛있어	-10.6922
▁공개	-10.6923
미련없	-10.6948
▁솔로	-10.6954
립니다	-10.6964
시작	-10.6967
▁중국	-10.6968
한건가	-10.697
▁흔	-10.697
▁쳐다	-10.6972
닝	-10.6977
▁개강이	-10.6978
이겠죠	-10.6981
냥	-10.6981
▁진행	-10.6982
▁기다려야	-10.6983
▁나빠	-10.6984
룩	-10.6989
▁두근거	-10.6993
텐	-10.6997
▁화가나	-10.6997
▁작아	-10.6998
▁미칠	-10.6999
눅	-10.6999
류	-10.7002
탁	-10.7002
▁휘	-10.7004
힌	-10.7004
▁멈	-10.7004
▁난방	-10.7004
듭니다	-10.7004
쪼	-10.7005
슈퍼	-10.7005
렵니다	-10.7005
▁곱	-10.7005
B	-10.7005
a	-10.7005
s	-10.7005
▁교양수업	-10.7005
▁꼰대	-10.7005
▁꼼	-10.7005
▁꽉	-10.7005
▁꾹꾹	-10.7005
▁대기업	-10.7005
▁뒹굴	-10.7005
▁레시피	-10.7005
▁맺	-10.7005
▁멘	-10.7005
▁몫	-10.7005
▁무한리필	-10.7005
▁버릇	-10.7005
▁베트남	-10.7005
▁선풍기	-10.7005
▁수면양말	-10.7005
▁애프터	-10.7005
▁웹툰	-10.7005
▁유부녀	-10.7005
▁이모티콘	-10.7005
▁입냄새	-10.7005
▁팍팍	-10.7005
▁하우스웨딩	-10.7005
▁핫	-10.7005
각질제거	-10.7005
글쎄요	-10.7005
껄	-10.7005
낮잠	-10.7005
맷	-10.7005
사춘기	-10.7005
샌	-10.7005
소액결제	-10.7005
앨	-10.7005
엠	-10.7005
율	-10.7005
째깍	-10.7005
팁	-10.7005
팬	-10.7005
펑	-10.7005
▁겪	-10.7005
▁뚫	-10.7005
▁맴	-10.7005
▁설득	-10.7005
▁아울렛	-10.7005
▁원동력이	-10.7005
▁현타	-10.7005
놨	-10.7005
뒷감당	-10.7005
줌	-10.7005
풋	-10.7005
▁브랜드	-10.7005
▁알뜰폰	-10.7005
▁케익	-10.7005
그린라이트	-10.7005
덥	-10.7005
짚	-10.7005
쭤	-10.7005
▁떨어뜨려	-10.7005
▁어리석	-10.7005
▁확률	-10.7005
▁골프	-10.7005
▁손가락	-10.7005
▁뱃살	-10.7005
▁비행기표	-10.7005
피부관리	-10.7005
▁뉴스	-10.7005
▁외출하	-10.7005
▁블록	-10.7005
▁넘어가네	-10.7005
▁찢어지	-10.7005
▁뛰어넘	-10.7005
▁베프	-10.7005
▁미용실	-10.7005
▁감정기복	-10.7005
▁월세	-10.7005
▁희생양	-10.7005
▁부탁드립니다	-10.7005
▁인지시켜	-10.7005
▁당첨	-10.7005
▁승진	-10.7006
▁열흘	-10.7006
▁비정상이	-10.7006
▁예능	-10.7006
▁떨린다	-10.7006
▁바꿨어	-10.7006
▁빈자리	-10.7006
▁환기	-10.7006
▁주름살	-10.7006
▁친척	-10.7006
▁작동	-10.7006
▁똑같애	-10.7006
▁종지부	-10.7006
▁이제서야	-10.7006
▁엄마아빠	-10.7006
▁허전할	-10.7006
▁발견	-10.7006
▁녹여	-10.7006
▁어떡함	-10.7006
상종하지	-10.7007
▁미안하다	-10.7007
▁출발	-10.7007
▁보냈습니다	-10.7007
▁직전	-10.7007
▁리드	-10.7007
▁무뎌지	-10.7007
▁알바생	-10.7007
▁참석하는	-10.7007
폭력	-10.7007
▁낭만이	-10.7008
▁들이대	-10.7008
▁감출	-10.7008
패션	-10.7008
▁나이테	-10.7008
▁다녀왔어	-10.7008
▁속박	-10.7008
▁변화시켜	-10.7008
▁쌓여	-10.7008
콜록	-10.7009
▁한심해	-10.7009
똥차	-10.7009
증명	-10.7009
▁선택이었을	-10.7009
초록	-10.7009
▁한번쯤	-10.701
▁배울까	-10.701
▁초기화	-10.701
▁비정규직	-10.701
▁차였는데	-10.701
▁연애세포	-10.7011
잔하네	-10.7011
▁망함	-10.7012
웃으면	-10.7013
▁보냈네	-10.7013
▁예전	-10.7013
▁어렸을때	-10.7013
▁입학	-10.7013
▁끝났습니다	-10.7014
▁구워	-10.7014
확실해	-10.7014
▁겁나	-10.7014
식이	-10.7014
바쁠	-10.7015
▁지웠어	-10.7015
▁지낸	-10.7015
디오	-10.7016
스트	-10.7016
두통	-10.7016
▁부족해	-10.7017
▁잊혀질까	-10.7017
▁차분하	-10.7017
▁고시원	-10.7017
▁어떡하죠	-10.7017
장갑	-10.7017
▁기다릴게요	-10.7017
▁따져	-10.7017
▁좋아한대	-10.7017
▁떠날	-10.7018
▁무뎌질	-10.7018
▁알아볼	-10.7018
▁돌아와	-10.702
▁심해지는	-10.702
▁오셨	-10.702
잡념	-10.702
▁끊겼어	-10.7021
▁방금	-10.7021
▁면도기	-10.7021
▁진리	-10.7021
▁헛헛	-10.7022
▁프로	-10.7022
▁봤나	-10.7023
가려	-10.7023
▁실행	-10.7024
음료	-10.7025
무모	-10.7025
니깐	-10.7025
▁최저	-10.7025
▁12	-10.7026
▁괜찮겠지	-10.7027
주물	-10.7027
식물	-10.7028
▁떠나간	-10.7028
▁티나나	-10.7028
결혼에	-10.7029
▁어떠세요	-10.7029
▁미화되기	-10.7029
▁지각	-10.7031
▁상대적	-10.7032
재인가	-10.7033
차곡	-10.7033
추적	-10.7034
▁냉면	-10.7034
▁풀리	-10.7034
▁되려면	-10.7035
청결	-10.7035
▁필기	-10.7036
▁위로해줄	-10.7036
▁잘못입니다	-10.7038
▁오바	-10.7039
시도해	-10.704
▁아부	-10.7041
둬야	-10.7041
▁보란	-10.7041
▁아쉬움이	-10.7042
실수했나	-10.7042
▁싸운	-10.7042
메뉴얼	-10.7043
개월차	-10.7045
▁물질	-10.7045
▁일시적	-10.7046
으아	-10.7048
외부	-10.705
▁연락왔어	-10.7051
감성적이	-10.7055
▁맛있다	-10.7058
▁숙제	-10.7059
▁어렵다	-10.706
▁이별준비	-10.7061
종료	-10.7062
▁실력	-10.7063
▁끈을	-10.7063
▁나왔네	-10.7065
▁없는걸까	-10.7067
▁냉	-10.7068
▁접어야	-10.7071
▁보고싶	-10.7072
▁죽을거	-10.7073
비교하	-10.7073
▁무리하지	-10.7074
▁짜증나네	-10.7076
▁들어줄	-10.7076
▁사줘	-10.7078
▁하다니	-10.708
날짜	-10.7081
주량	-10.7082
▁영어	-10.7084
▁다칠	-10.7084
▁막힌다	-10.7087
▁늙어가	-10.7088
▁믿음	-10.7088
▁회복	-10.7091
▁헷갈리네	-10.7092
졸린	-10.7092
근데	-10.7092
▁어떨	-10.7093
▁받으시	-10.7093
▁농	-10.7094
▁고백할	-10.7094
대청소	-10.7096
체인	-10.7098
▁터질	-10.7099
습관처럼	-10.7099
▁연상	-10.7101
▁쫄	-10.7102
▁있는걸까	-10.7103
지압	-10.7103
▁좋긴	-10.7104
▁누구야	-10.7107
▁손톱이	-10.7107
▁아니겠지	-10.7108
▁한약	-10.7108
▁호칭	-10.7109
▁명품	-10.7109
▁와닿	-10.7109
▁예약	-10.711
▁수능	-10.7111
▁누나	-10.7113
▁웃음	-10.7114
▁그리울	-10.7114
▁목적	-10.7115
▁술한잔	-10.7115
▁아는거	-10.7116
▁프라이버시	-10.7116
▁가능한가	-10.7117
▁좋아지고	-10.7117
▁옳은	-10.7118
▁우울하	-10.7118
▁차인	-10.712
남한테	-10.712
▁해봤는데	-10.7124
태연	-10.7125
▁정신적	-10.7125
▁다녀와	-10.7128
가능하다	-10.7128
▁싶으면	-10.7129
▁비오	-10.713
▁건강습관이	-10.7131
▁외국어	-10.7134
▁싸울	-10.7135
▁운동화	-10.7136
▁좋은거	-10.7137
▁망상	-10.7137
▁넘었는데	-10.7138
▁안받아	-10.7139
강제	-10.714
▁나쁘	-10.714
망이	-10.7149
▁없는걸	-10.7151
이예요	-10.7151
▁어쩌	-10.7151
▁고백한	-10.7151
탔어	-10.7154
▁공간	-10.7155
▁싸우고	-10.7157
사표	-10.7158
피로	-10.7158
▁세우	-10.716
▁운이	-10.7168
들었겠	-10.7169
제정신	-10.7174
▁오니까	-10.7175
▁점심시간에	-10.7178
싫어	-10.7179
▁일하	-10.7182
▁식습관	-10.7187
▁결심이	-10.7187
▁알아내	-10.7191
▁다음에	-10.7192
변신	-10.7194
려는	-10.7198
▁사이로	-10.7199
▁결정하는	-10.7199
▁해준	-10.7199
아쉬운	-10.7201
▁나오네	-10.7203
▁마주쳤	-10.7206
▁뛰어	-10.7207
▁머릿속	-10.7207
▁해줄까	-10.7208
렸으면	-10.7209
이럴까	-10.7211
▁남자입니다	-10.7215
▁연락할까	-10.7221
있을까	-10.7224
정도	-10.7227
관리	-10.7228
▁좋으니	-10.7228
생각한	-10.7228
고치기	-10.723
▁기침	-10.7232
주일	-10.7232
▁좋아졌어	-10.7233
▁취직할	-10.7234
▁배정	-10.7234
▁떠오르	-10.7234
버렸네	-10.7236
▁반년	-10.7238
▁액	-10.7244
들었나봐	-10.7248
▁남자에게	-10.7249
해주	-10.7249
▁어둠	-10.7252
▁무릎	-10.7253
▁좋은점	-10.7253
▁흘러가	-10.7254
▁미팅	-10.7256
▁붙이	-10.7256
▁짜장면	-10.7258
▁찜질방	-10.7258
▁첫인상	-10.7259
개시	-10.7261
▁센	-10.7262
▁아이스크림	-10.7263
▁조용	-10.7264
▁간대	-10.7264
▁돌아오지	-10.7265
너	-10.7265
▁없대	-10.7266
▁말해보는	-10.7275
당당하	-10.7281
▁가려고	-10.7285
▁주제	-10.7286
▁동생한테	-10.7286
▁일요일	-10.7287
▁마시지	-10.7288
안됐네	-10.7291
▁알겠어	-10.7293
▁필요하지	-10.7295
▁이상하	-10.7295
셔야	-10.7299
▁부려	-10.73
▁쌓였	-10.7305
▁쓸데없	-10.7307
인연	-10.7311
▁가능한	-10.7316
하셔야죠	-10.7321
▁잊지못	-10.7331
안정적	-10.7335
▁굴	-10.7339
비용	-10.734
▁놀랐겠	-10.7342
▁질리	-10.7342
▁쓰일	-10.7343
에도	-10.7344
애석하	-10.7346
▁배신	-10.7353
▁당신에게	-10.7354
꾸준한	-10.7363
▁병	-10.7366
▁끄는	-10.7369
실천	-10.7372
▁고백해야	-10.7372
▁잘생겼어	-10.7373
이란게	-10.7374
▁해야할	-10.7386
▁끊으	-10.739
▁아프게	-10.7392
이크	-10.7397
▁냄새나	-10.7416
▁의심해	-10.7416
▁상태인	-10.7422
▁정상	-10.7423
▁허무하네	-10.7429
▁친구인데	-10.7443
성덕이	-10.7453
▁이어가	-10.7455
▁생각한	-10.7457
중요하니까	-10.7457
현실적	-10.7463
▁끊기	-10.7471
▁남은	-10.7473
▁품	-10.7488
되시길	-10.749
▁고장	-10.7491
▁빨	-10.7492
해야할지	-10.7494
▁쓰게	-10.7502
▁말보다	-10.7505
자마	-10.7514
져서	-10.7524
▁끊겼	-10.7529
▁A	-10.753
연습	-10.7536
▁모른척	-10.7536
민	-10.7538
▁없었	-10.7541
▁아플	-10.7543
▁도전하	-10.7543
▁하러	-10.7544
▁처리	-10.7547
사이	-10.7548
▁언제든	-10.7549
▁육아	-10.7549
▁잇몸	-10.755
▁실내	-10.7556
▁결정할	-10.7558
▁뭐해	-10.7563
해줘서	-10.7565
고마	-10.7569
일방적	-10.7579
▁죽어	-10.7579
맞아	-10.758
▁사랑했	-10.758
▁해봐	-10.7581
▁넣어	-10.7583
▁해야겠지	-10.7586
▁페	-10.7587
달리	-10.7588
표현하지	-10.7591
온다	-10.7592
▁구분	-10.7601
▁안될	-10.7606
▁받으세요	-10.761
▁질린	-10.7626
▁복잡	-10.7628
▁했네	-10.7632
▁화해	-10.7633
▁싶다는	-10.7634
들어서	-10.7636
▁붙잡아	-10.7637
보이는	-10.7638
▁수준	-10.7646
들지	-10.7649
▁사랑하기	-10.7662
헤어짐에	-10.7664
▁괜찮다가	-10.767
▁말해봐	-10.7672
움이	-10.7675
▁'	-10.7675
▁보내지	-10.7678
바보	-10.7684
▁해주고	-10.7689
▁잊어가는	-10.769
▁짝사랑만	-10.7691
▁외모	-10.7703
▁버릴	-10.7708
▁뜨는	-10.7709
▁하루에	-10.7712
옆에	-10.7717
▁정답	-10.7718
▁주식	-10.7719
▁고독	-10.7725
▁도와줄	-10.7726
1	-10.773
▁달라진	-10.7733
▁변명	-10.7737
▁느껴보	-10.7742
타인	-10.7746
해줬으면	-10.7756
했던거	-10.7758
솔직하	-10.7761
▁거겠지	-10.7762
▁갑니다	-10.7767
▁보이는	-10.7773
▁많으시	-10.7774
▁화나	-10.7785
▁판	-10.7787
안보여	-10.7792
보여	-10.7793
▁힘든가	-10.78
▁아니었을	-10.7804
▁못자	-10.7812
▁컨	-10.7815
▁스트레칭	-10.783
▁나한테만	-10.7832
▁보험	-10.7853
스럽	-10.7886
▁그런지	-10.7889
인정	-10.7891
처음에	-10.79
하려	-10.794
▁하는지	-10.794
오는	-10.7944
▁귀찮다	-10.7946
놀러가세요	-10.795
▁기술이	-10.7952
▁당당해	-10.7957
▁가벼	-10.7958
이고	-10.7962
시다니	-10.7965
사드리	-10.7966
▁혼내	-10.7976
▁사귀기	-10.7991
▁맛난	-10.7994
한대	-10.7998
해도될까	-10.8004
연락하지	-10.8005
▁달달	-10.802
무시	-10.8021
당연하	-10.8022
▁바뀌어	-10.8026
할게	-10.8026
한걸까	-10.8033
▁생각하게	-10.8033
보이네	-10.8035
▁충전기	-10.8037
▁후련하네	-10.8042
마음에서	-10.805
▁약이	-10.805
,,",	-10.8054
인연인	-10.8054
볼때	-10.8057
해야할까	-10.8058
▁꿨	-10.8059
▁사람이었나	-10.8065
아이	-10.8069
해야겠지	-10.8081
▁나니	-10.8092
이었을	-10.8096
▁가치관이	-10.8097
▁마주치면	-10.8098
정기	-10.8101
▁생각하나	-10.8101
▁개인적	-10.8106
었네	-10.8132
▁거였	-10.8136
▁이쁜	-10.8141
▁자르	-10.8146
확	-10.8148
▁무엇인	-10.8156
▁사라	-10.8169
▁오락가락	-10.8186
▁찾아오네	-10.8189
▁나눠보는	-10.8206
▁별로인	-10.8215
▁이래	-10.8215
▁모르겠다	-10.8218
▁복잡해	-10.8221
▁떨어	-10.8226
▁후회없	-10.8227
▁되어요	-10.8229
▁자야	-10.8229
▁할게	-10.824
▁메	-10.8242
크리스마스에	-10.8254
▁해결해	-10.8258
▁지냈	-10.8297
줘서	-10.8297
거지	-10.8302
▁부족	-10.8309
궁금하	-10.8311
걱정되	-10.8313
어보고	-10.8335
▁수건	-10.8346
▁안타깝	-10.8346
,",	-10.8356
▁연애에	-10.8356
그렇다	-10.8361
▁사랑이에요	-10.8368
따	-10.837
이었나봐	-10.8391
▁배려해	-10.8392
으신가	-10.8402
했을까	-10.8404
▁해보려	-10.8406
▁이겨야	-10.8413
▁귀찮은	-10.8422
▁식었	-10.8432
▁귀엽	-10.8442
▁이름	-10.8449
오겠죠	-10.8452
▁살았	-10.8455
▁우정	-10.8456
▁정확	-10.8461
▁그사람이	-10.8465
▁가져가	-10.8465
린다	-10.8467
당연	-10.8471
▁김	-10.8473
되었는데	-10.8478
▁깎아야	-10.848
충전	-10.8482
▁편안하	-10.8485
▁붙잡는	-10.8485
이해하	-10.8486
▁물이	-10.8494
▁다양	-10.8496
왔네	-10.8509
▁일정	-10.851
야겠어	-10.8517
결혼하기	-10.8518
이니	-10.8521
▁쌓	-10.8523
▁상황인	-10.8534
간의	-10.8534
▁인스타	-10.8542
▁치맥이	-10.8547
▁예쁘다	-10.8552
▁만나요	-10.8557
▁믿음이	-10.856
▁몰려	-10.8561
▁애정	-10.8568
▁취직하	-10.8571
▁풀려	-10.858
하기로	-10.858
진지	-10.8588
잡는	-10.8589
▁준비해	-10.8603
문이	-10.8613
▁원해	-10.8621
난다면	-10.8626
▁사랑이라는	-10.8632
▁사실이	-10.8633
해주고	-10.8635
내려	-10.8646
자연	-10.8653
▁친해	-10.8654
▁시간이었	-10.8656
연애하면	-10.8669
▁오해	-10.8676
▁안전	-10.8681
▁나겠	-10.8684
페	-10.8688
말걸	-10.869
▁달에	-10.87
쳤어	-10.8706
런지	-10.8724
싶은데	-10.8741
▁싫은가봐	-10.8753
▁찾아가는	-10.8761
▁나야	-10.8774
▁년	-10.878
▁절약해	-10.8793
▁출근하	-10.8796
무덤덤해지	-10.8797
남자친구	-10.88
▁버려야겠	-10.8821
▁버려야	-10.8824
막히는	-10.884
겠대	-10.8843
▁연인이	-10.8846
해야겠다	-10.8856
▁도	-10.886
▁되려	-10.8871
다행	-10.8872
▁밥이	-10.8874
러운	-10.8882
름이	-10.8882
▁남자의	-10.8884
이에	-10.8887
회사에	-10.8925
되가네	-10.8932
▁뭐하	-10.8938
올까	-10.8939
그런건가	-10.8939
▁아이돌	-10.894
▁중독인	-10.8943
되었길	-10.8946
되니까	-10.8956
▁마주하	-10.8967
겼는데	-10.8976
▁시원	-10.899
심이	-10.8991
간을	-10.9006
안한다	-10.9016
▁걸리겠	-10.9019
▁멀	-10.9019
▁포기해야	-10.9022
실에	-10.9032
▁끝인가봐	-10.9037
▁예	-10.9056
됩니다	-10.9059
▁다가가는	-10.906
▁중고	-10.9068
▁따라가	-10.907
▁그분	-10.9081
절한	-10.9085
▁정확하	-10.909
아들	-10.9097
▁많겠지	-10.9098
▁떠보	-10.9102
보고싶	-10.9104
식을	-10.9119
▁하는거	-10.9122
월급날	-10.9124
시려	-10.9125
도망가	-10.9144
하는걸	-10.9148
▁남사친	-10.9157
▁만나기	-10.9158
▁설레는	-10.9164
▁멍청	-10.9165
족	-10.9174
▁사귀자	-10.9182
옷이요	-10.92
드시	-10.9203
해줬어	-10.9203
감이	-10.9222
자랑	-10.9222
▁포기하	-10.9234
▁나는데	-10.9237
▁되어가	-10.9247
▁헤어졌다	-10.9265
▁울적	-10.9267
▁입으	-10.9268
놀	-10.9288
톡	-10.9289
차단하는	-10.9295
▁부르	-10.9301
식하는	-10.9328
먹으면	-10.9338
▁연속이	-10.9342
다리	-10.9343
▁불만	-10.9366
키	-10.9374
▁않기	-10.9377
▁떨쳐	-10.939
잊	-10.9397
군	-10.9401
▁꿈같	-10.9405
▁속상	-10.9408
▁용서	-10.9408
▁예민	-10.942
▁착각이	-10.9423
▁만한	-10.9425
▁요구	-10.9432
충전하	-10.9448
차가	-10.9451
어져	-10.9461
조언	-10.9463
▁잘못한	-10.9464
누	-10.9467
남이	-10.9467
밤	-10.9489
▁해야하나	-10.9489
활	-10.9493
귀	-10.9494
▁말한	-10.9511
▁잘라	-10.9524
▁투자	-10.9526
위기	-10.9537
겁	-10.9542
▁풀어야	-10.9555
▁지는	-10.9556
때문에	-10.9559
침	-10.9566
짜	-10.9581
▁사람이다	-10.9587
결국	-10.9591
축하	-10.9594
보니	-10.9603
일만	-10.9607
테	-10.9613
모	-10.962
호	-10.9631
말은	-10.9635
시켜	-10.9643
▁모른척하	-10.9644
상하지	-10.9645
▁아닌가	-10.9646
▁사람하고	-10.9651
육	-10.9652
하자	-10.9652
깜빡	-10.9667
▁감으	-10.9675
품	-10.9685
▁현금	-10.9689
투	-10.969
▁칭찬해	-10.969
만날	-10.9696
갑작스러	-10.9703
완	-10.9712
시작하기	-10.9717
▁너무너무	-10.972
폭	-10.9721
▁이길	-10.973
성적이	-10.973
좋아할	-10.9737
▁치열	-10.9738
무엇	-10.9738
견디기	-10.9739
염탐하	-10.974
▁내려놓	-10.974
멋있	-10.9752
여기까지	-10.9753
받으면	-10.9754
▁뭐지	-10.9755
즐	-10.976
보지	-10.9766
괜찮아질	-10.9771
뭔가	-10.9772
쌈	-10.9775
틈	-10.9775
전역	-10.9775
응	-10.9776
모자라	-10.9778
드라이브	-10.978
매력있	-10.9781
많은걸	-10.9782
▁익숙해지	-10.9788
평생	-10.9789
아파트	-10.979
롱	-10.9791
취미	-10.9791
빠른	-10.9791
붙잡고	-10.9792
그리움	-10.9794
시어머니	-10.9794
우울	-10.9795
▁기다리지	-10.9795
볶	-10.9796
기념일	-10.9797
받아들이기	-10.9799
보냈	-10.9799
받으면서	-10.98
헛	-10.9802
마시면	-10.9803
녹	-10.9803
의미부여	-10.9804
sns	-10.9809
자괴감	-10.981
베터리	-10.9812
차라리	-10.9812
지쳤나	-10.9812
아닐	-10.9813
아프	-10.9814
취업	-10.9814
속에	-10.9815
팩	-10.9816
말투	-10.9817
잘못된	-10.9818
원래	-10.9819
신뢰	-10.982
페북	-10.982
귀여	-10.982
싸움	-10.9821
애교	-10.9821
커	-10.9822
매너	-10.9822
사귀다	-10.9822
목표	-10.9823
외롭	-10.9823
용해	-10.9823
센스	-10.9823
노후	-10.9823
됨	-10.9828
사귄	-10.983
운명인가	-10.9831
단점	-10.9833
헤어지면	-10.9833
맞나	-10.9833
언제든	-10.9833
▁진지	-10.9837
빵	-10.984
▁관심있	-10.9841
당연한	-10.9843
질질	-10.9843
널	-10.9843
충격	-10.9846
팔	-10.9847
었다	-10.9852
당했어	-10.9852
나한테만	-10.9852
문자	-10.9854
전공	-10.9855
결정할	-10.9858
어디서	-10.9867
사람이니까	-10.9868
행복할	-10.9869
과정이	-10.9871
평가	-10.9872
웠어	-10.9876
피해	-10.9878
변명	-10.988
재밌는	-10.988
필	-10.9884
▁해외여행	-10.9888
치료	-10.9892
괜찮을	-10.9892
사과	-10.9892
성장	-10.9895
다가가는	-10.9896
얘	-10.9896
든든하	-10.9897
경쟁	-10.9898
새해	-10.9898
▁이것	-10.9901
너에게	-10.9904
노	-10.9908
라더니	-10.9908
▁안가	-10.9909
▁맞나봐	-10.9909
▁착하	-10.9909
챙겨주	-10.9918
시기	-10.9921
프	-10.9922
좋아하	-10.9924
▁심하네	-10.9926
전과	-10.9932
계절	-10.9933
▁사먹	-10.994
알면	-10.9952
렀어	-10.9957
▁다되가	-10.9959
였던	-10.9959
▁카톡할	-10.9963
늦은	-10.9967
일부	-10.997
▁안좋은	-10.9982
▁정리했	-10.9983
좋아하나	-10.9988
▁좋네	-10.9989
수건	-10.9989
경험	-10.999
▁해야겠	-10.9995
▁말자	-10.9996
운명이	-10.9998
그녀가	-11.0003
좋아하지	-11.0004
떨리	-11.0009
처	-11.0009
주려고	-11.0019
탈이	-11.0019
일이라	-11.0025
▁올리	-11.003
다보니	-11.0039
▁한순간	-11.004
당당	-11.0041
시간에	-11.0044
▁도전해	-11.0044
▁유지	-11.0045
▁이별중	-11.0059
노력하는	-11.006
괜찮아지	-11.0068
▁죽겠	-11.0071
▁신고하	-11.0082
살다	-11.0097
편지	-11.01
와야	-11.0102
▁똑	-11.0111
끄러워	-11.0123
있나	-11.0132
▁가득	-11.0154
오게	-11.0163
▁멀어진	-11.0167
어장	-11.0181
이거	-11.0189
▁때인	-11.0189
일상	-11.0197
▁경험해	-11.0203
▁뛰	-11.0204
싹	-11.0204
▁의미일까	-11.0211
▁접는	-11.0213
▁사람이네	-11.0216
▁움직	-11.0221
즘	-11.0223
▁되돌	-11.0227
상황에	-11.0232
꿈이	-11.0235
▁당연하	-11.0235
같지	-11.0236
쟁	-11.0238
▁멈춰	-11.0255
▁자책	-11.0257
▁회	-11.0261
▁무색하	-11.0263
▁상메	-11.0271
▁사겨	-11.0273
초대	-11.0277
▁헤	-11.0293
곡	-11.03
안할	-11.03
▁감성	-11.031
▁야	-11.0311
▁하나봐	-11.0313
시키는	-11.0314
꾼	-11.0316
납	-11.0322
▁앞이	-11.0322
▁돌아올	-11.0323
닥	-11.0326
▁줄일	-11.0326
▁아련	-11.0328
촉	-11.0334
▁탓	-11.0334
▁바랄	-11.0335
춰	-11.0336
궈	-11.0336
콕	-11.0337
범	-11.0338
둥	-11.0338
봉	-11.0338
낌	-11.0338
▁씁	-11.0338
뱃	-11.0338
▁설렐	-11.0338
▁시간낭비인	-11.0338
▁턱	-11.0338
▁헐	-11.0338
넋	-11.0338
샜	-11.0338
송	-11.0338
-	-11.0338
▁간섭	-11.0338
▁간질간질	-11.0338
▁견과류	-11.0338
▁공휴일에	-11.0338
▁기쁨	-11.0338
▁깍	-11.0338
▁깰	-11.0338
▁눕	-11.0338
▁두렵	-11.0338
▁드레스	-11.0338
▁로맨스	-11.0338
▁묘	-11.0338
▁밑바닥	-11.0338
▁북	-11.0338
▁숫자	-11.0338
▁심쿵	-11.0338
▁아날로그	-11.0338
▁앱	-11.0338
▁어딘가	-11.0338
▁얽	-11.0338
▁예측	-11.0338
▁오지랖	-11.0338
▁잘생겨	-11.0338
▁텀	-11.0338
▁헥헥	-11.0338
▁호르몬	-11.0338
▁혼란스러워	-11.0338
▁홈	-11.0338
겐	-11.0338
뇌	-11.0338
눈꺼풀	-11.0338
돕	-11.0338
됬네	-11.0338
땜	-11.0338
띠	-11.0338
렴	-11.0338
륵	-11.0338
벤	-11.0338
젤	-11.0338
짼데	-11.0338
캬	-11.0338
쿠	-11.0338
토닥토닥	-11.0338
툭	-11.0338
▁비혼주의	-11.0338
▁혼란스럽	-11.0338
▁혼인신고	-11.0338
▁히스테리	-11.0338
얼떨떨	-11.0338
▁꿰	-11.0338
▁떴	-11.0338
▁하객	-11.0338
▁홧	-11.0338
▁흐지부지	-11.0338
옵	-11.0338
왓	-11.0338
현관문	-11.0338
▁표출	-11.0338
엉엉	-11.0338
▁느꼈	-11.0338
▁버렸다	-11.0338
▁헹	-11.0338
닷	-11.0338
▁소름돋	-11.0338
뻐근	-11.0338
▁우습	-11.0338
▁근교	-11.0338
▁씨씨	-11.0338
▁안타까워	-11.0338
▁미안하대	-11.0338
▁투잡	-11.0338
오른다	-11.0338
▁창피해	-11.0338
▁주워담	-11.0338
▁깜빡거려	-11.0338
▁대리효도	-11.0338
▁자극이	-11.0338
▁베란다	-11.0338
▁욜로	-11.0338
▁공황	-11.0338
▁땡긴다	-11.0338
▁창문	-11.0339
▁으으	-11.0339
▁쪼금	-11.0339
▁환경	-11.0339
▁쇼핑몰	-11.0339
현명	-11.0339
▁관찰	-11.0339
▁빼앗	-11.0339
▁평범	-11.0339
▁충실하	-11.0339
▁탄다	-11.0339
▁매몰	-11.0339
▁서핑	-11.0339
▁도저히	-11.0339
▁뒤돌아	-11.0339
▁흐려지	-11.0339
▁환심	-11.0339
블루	-11.0339
식단조절	-11.0339
▁의존	-11.0339
▁배불러	-11.0339
▁투성이	-11.0339
▁구썸남	-11.0339
▁빌릴까	-11.0339
예쁠	-11.0339
▁세탁	-11.0339
▁자유여행이	-11.0339
▁병행	-11.0339
▁사로잡	-11.0339
▁스노	-11.0339
▁미끄러질	-11.0339
▁구박하	-11.0339
▁비오는날	-11.0339
▁노잼	-11.0339
▁태어났을까	-11.0339
▁갈등	-11.0339
▁위축	-11.0339
▁친군	-11.034
▁한숨	-11.034
베리	-11.034
울컥	-11.034
▁직후	-11.034
▁예랑이	-11.034
▁도와준	-11.034
▁떨어짐	-11.034
▁구남친	-11.034
▁헷갈려	-11.034
▁힘이드네	-11.034
▁증상이	-11.034
▁나빴네	-11.034
▁벗겨	-11.034
▁좋았을텐데	-11.034
뜨끈	-11.034
▁현실이	-11.034
▁엮여	-11.034
▁찬성	-11.034
▁불순	-11.0341
▁보여드리	-11.0341
▁봤습니다	-11.0341
▁갈궈	-11.0341
용품	-11.0341
▁공복이	-11.0341
▁뒤숭숭하네	-11.0341
았더니	-11.0341
▁체질	-11.0341
▁누워	-11.0341
그램	-11.0342
▁백수	-11.0342
▁까먹었어	-11.0342
▁사회에서	-11.0342
격식	-11.0342
체력	-11.0342
▁곤두	-11.0342
▁오랜연애	-11.0343
궁금해하지	-11.0343
▁내딛	-11.0343
▁벌레	-11.0343
▁어울릴까	-11.0343
▁스쳐	-11.0343
▁혼밥	-11.0343
▁정신병	-11.0343
▁주인공	-11.0343
▁식혀	-11.0343
▁유명	-11.0343
▁이끌어	-11.0344
▁스케	-11.0344
▁숨막히	-11.0344
잔치	-11.0344
잘자요	-11.0344
▁영화보러	-11.0344
▁짜증남	-11.0344
▁잊혀진	-11.0344
▁올랐어	-11.0345
▁깨짐	-11.0345
▁계약	-11.0345
▁유료	-11.0345
재설계	-11.0345
▁저편	-11.0346
▁반영	-11.0346
▁구매	-11.0346
▁치마	-11.0346
▁보인다	-11.0346
▁돌아올까	-11.0346
▁되돌아보	-11.0346
▁바나나	-11.0347
▁느낀다면	-11.0347
▁문제인가요	-11.0347
▁아까운	-11.0347
▁배워가는	-11.0348
▁바꿔볼까	-11.0348
▁정리했습니다	-11.0348
▁술자리	-11.0348
▁배워볼까	-11.0348
공통점	-11.0348
▁분양	-11.0349
경제	-11.0349
▁허락하	-11.0349
▁무너졌어	-11.0349
▁바닥	-11.035
▁11	-11.035
▁부팅	-11.035
▁편안해질	-11.035
▁생일선물	-11.035
집안	-11.035
감수성	-11.035
▁복잡했나	-11.0351
겁니다	-11.0351
버리는	-11.0351
▁다닐까	-11.0351
▁고백했다	-11.0352
딴짓	-11.0352
키기	-11.0352
▁대학원	-11.0352
님들	-11.0352
▁달라질	-11.0352
난감하	-11.0353
제습기	-11.0354
스릴있	-11.0354
▁요청	-11.0354
▁취소	-11.0355
더군	-11.0355
▁일주일이네	-11.0355
▁연락했습니다	-11.0356
처음이	-11.0356
▁바람피	-11.0356
▁편린	-11.0357
지나갑니다	-11.0357
▁즐거워	-11.0358
찬물	-11.0358
▁퇴근길	-11.0358
▁거둬	-11.0358
▁있었는지	-11.0359
▁무리일까	-11.0359
갑작스러웠	-11.0359
▁자장면이	-11.0359
▁찍었네	-11.036
탈까	-11.036
사랑했으니	-11.036
▁되어가네	-11.036
▁식사	-11.036
▁써보	-11.0362
▁배려해야	-11.0362
▁들텐데	-11.0363
▁누구냐	-11.0363
설계	-11.0363
▁호구	-11.0364
▁단단해지	-11.0364
가벼워질	-11.0364
▁식었어	-11.0365
▁보고파	-11.0367
▁한달반	-11.0367
▁재회했는데	-11.0368
마트	-11.0369
▁퇴근길에	-11.0369
▁지쳤어	-11.037
▁편하대	-11.037
방비	-11.0371
여기까지였	-11.0372
▁전학가	-11.0372
▁장난인지	-11.0373
▁권리	-11.0373
가족들	-11.0374
▁꿔	-11.0375
색다른	-11.0375
▁기억해주	-11.0375
허허	-11.0375
▁해외	-11.0375
▁주차장	-11.0376
▁다갔어	-11.0376
▁귀엽죠	-11.0376
▁미운	-11.0377
▁판단력	-11.0379
▁약점	-11.0379
▁나온대	-11.038
귀여운	-11.038
▁끌지	-11.0381
▁밀려오	-11.0381
▁쓰리	-11.0381
▁연락오네	-11.0382
▁계신	-11.0382
▁가고싶다	-11.0382
▁씹어	-11.0384
실수	-11.0386
▁뿌려	-11.0386
▁살았는데	-11.0387
▁안오지	-11.0387
▁쟁취하는	-11.0387
▁허기	-11.0388
▁예쁜데	-11.0388
빛으로	-11.0388
▁잊자	-11.0389
▁생각하세	-11.0389
게되네	-11.0389
▁한달만에	-11.0391
▁채우	-11.0391
▁매달려	-11.0391
▁때리기	-11.0392
▁질문이	-11.0393
주실	-11.0394
천국	-11.0395
숙취	-11.0395
버리네	-11.0395
▁엇갈리	-11.0396
▁않았다면	-11.0397
▁졸라	-11.0397
쉬었다	-11.0397
▁커플여행	-11.0399
거니	-11.0399
▁만져	-11.0401
탈출구	-11.0402
▁보약	-11.0403
▁발라	-11.0403
설마	-11.0403
▁없어졌으면	-11.0404
▁무섭네	-11.0405
▁먹자	-11.0406
정열적	-11.0406
▁고집	-11.0406
▁생생한	-11.0407
▁난방비	-11.0407
▁모르겠지만	-11.0408
▁안되겠죠	-11.0408
▁한달째	-11.0409
주인	-11.0412
▁싫어져	-11.0414
스러울	-11.0414
▁받으셨	-11.0414
▁얘기하지	-11.0415
▁출근길	-11.0415
▁정리하려고	-11.0416
▁모여	-11.0416
▁잘살고	-11.0416
▁헤아	-11.0417
▁소원이	-11.0417
깔끔한	-11.0419
▁무섭다	-11.0421
양치	-11.0423
이브	-11.0424
▁어디가지	-11.0424
▁작아지	-11.0424
▁보임	-11.0425
▁내려놓고	-11.0426
▁끊어야	-11.0427
▁그럴수	-11.0428
▁지날	-11.043
▁골랐	-11.043
▁괴롭다	-11.043
▁보셨나	-11.0431
▁추스리	-11.0431
▁사과해야	-11.0432
▁없다는	-11.0432
▁마시기	-11.0433
▁힘들어져	-11.044
▁알려면	-11.044
오르네	-11.0443
???,	-11.0443
▁필요한가요	-11.0444
▁어색해졌어	-11.0444
▁하셔	-11.0444
▁역시나	-11.0444
꿈꾸	-11.0445
▁다되어가네	-11.0445
▁무거	-11.0445
▁누락됐	-11.0446
▁아니었어	-11.045
▁수학여행가	-11.045
▁연하	-11.0451
▁걸었어	-11.0454
빌리	-11.0455
속아주	-11.0455
▁느껴질	-11.0456
▁문화	-11.0458
▁물건들	-11.0461
▁저주	-11.0461
간당	-11.0462
기다렸나봐	-11.0462
▁속시원해	-11.0463
안된다	-11.0464
▁변덕	-11.0465
▁안좋	-11.0467
▁사무	-11.0468
!!!,	-11.0468
▁남아있	-11.0472
▁떼	-11.0474
▁쭉	-11.0474
▁흠	-11.0474
▁아깝다	-11.0475
▁처럼	-11.0478
▁지냈나	-11.0478
▁이러고	-11.0478
▁공부방법	-11.048
▁가보	-11.0482
▁총회	-11.0483
▁침묵	-11.0483
▁뜨겁	-11.0483
▁꾸미	-11.0484
▁불쑥	-11.0484
▁김치	-11.0484
▁롱디	-11.0485
▁공유	-11.0485
▁학벌	-11.0486
▁심남	-11.0486
▁무언가	-11.0487
▁객관적	-11.0488
▁훔쳐보	-11.0488
▁자장가	-11.0488
▁착잡하	-11.0489
▁두근거려	-11.049
▁허전함	-11.0491
싫다	-11.0492
취직이나	-11.0492
계획적이	-11.0493
▁좋겠습니다	-11.0494
▁선택할	-11.0496
▁감동	-11.0497
정확한	-11.0498
정리되길	-11.05
▁부담스러울	-11.0505
▁비밀연애	-11.0507
올려봐	-11.0508
▁예고	-11.0509
▁사랑이야기	-11.0514
▁죽겠다	-11.0516
▁지났는데	-11.0516
두세	-11.052
▁지옥같	-11.0522
▁돌아오는	-11.0523
▁벌려	-11.0523
▁악	-11.0523
▁동거하다	-11.0523
▁입을까	-11.0525
순수한	-11.0525
▁생각일까	-11.0525
마시며	-11.0526
▁직구	-11.0526
▁표현하기	-11.0527
▁연애중	-11.0528
▁전여자친구	-11.0528
▁아려	-11.0528
▁보듬어주	-11.0529
▁받네	-11.0533
그쪽	-11.0533
▁됐나	-11.0534
▁채워보세요	-11.0536
▁둔한	-11.054
▁춥고	-11.0541
▁소심	-11.0554
▁익숙해져	-11.0554
▁따르	-11.0555
지는것	-11.0557
▁나갈까	-11.0561
▁복전	-11.0561
▁깨진	-11.0563
▁지친	-11.0564
침해	-11.0565
▁사귀는데	-11.0568
보내	-11.0569
손잡	-11.0574
▁반가워요	-11.0575
▁마라	-11.0576
▁불가능	-11.0576
▁귀찮게	-11.0578
조심해야	-11.0578
▁됐습니다	-11.0582
▁추가	-11.0591
마음으로	-11.0593
▁잃을	-11.0594
▁날들	-11.0601
▁친절한	-11.0602
▁분에게	-11.0603
▁여러명	-11.0604
적당해	-11.0613
돈이	-11.0614
태그	-11.0614
메리	-11.0615
하냐	-11.0616
▁생겼나봐	-11.0618
▁않으셨	-11.0618
▁없습니다	-11.0622
▁답답해서	-11.0623
▁예정	-11.0624
하시겠	-11.0625
▁남자와	-11.0631
▁돌아서	-11.0632
지겠네	-11.0638
▁지나고	-11.0639
▁쓸데	-11.0641
▁소개받	-11.0644
▁지적	-11.0645
▁솔	-11.0647
모처럼	-11.0649
▁극복하	-11.0651
▁연애인	-11.0651
▁너와	-11.0654
▁못할까	-11.0656
일이네	-11.0659
▁변하니	-11.0665
옥상	-11.0667
▁탈출	-11.0671
▁찾은	-11.0674
▁깨질	-11.0675
▁그러지	-11.0675
▁빚	-11.0679
연애였는데	-11.068
▁버림	-11.0681
▁짝사랑인	-11.0682
▁쏟아	-11.0687
▁맨	-11.0689
▁배울	-11.069
▁찾아야	-11.069
▁대단해	-11.0692
▁무서	-11.0692
▁한켠	-11.0694
▁설렜	-11.0694
▁모쏠	-11.0694
▁개념	-11.0697
▁낫지	-11.0697
▁포근	-11.0697
▁방문	-11.0698
▁안나나	-11.0698
▁등산	-11.0699
▁서툴러	-11.0701
▁흑역사	-11.0702
▁생각난다	-11.0702
▁무의식	-11.0703
▁비참해	-11.0705
▁갑작스럽	-11.0705
▁혼나	-11.0707
화가나네	-11.0708
일뿐	-11.0708
▁졸업식	-11.0709
▁구속	-11.0709
공개해	-11.071
▁거지같	-11.0714
▁반갑	-11.0714
▁사탕	-11.0715
▁흘렸	-11.0716
▁펴	-11.0719
감한	-11.0719
▁전까지	-11.072
살랑	-11.0721
▁허전한	-11.0721
▁농구하	-11.0721
▁거부	-11.0724
▁다정한	-11.0728
기억에	-11.0729
▁것일까	-11.0733
▁울고	-11.0734
왔습니다	-11.0735
▁가입	-11.0735
▁치우	-11.0736
▁충	-11.0737
▁대수	-11.0737
▁딸까	-11.0738
▁이야기할	-11.0739
▁받아들여지	-11.0742
▁사생활	-11.0743
이냐	-11.0744
살아가는	-11.0746
▁생각하면서	-11.0746
▁나이들	-11.0748
▁만들죠	-11.0752
했었는데	-11.0752
▁실망하	-11.0752
표현	-11.0759
▁떨면	-11.0762
▁다른데	-11.0763
▁남았어	-11.0765
▁썸타다	-11.077
▁어이없	-11.077
▁돌아오기	-11.0775
▁싫어할까	-11.0776
되겠죠	-11.0777
▁비우	-11.078
▁침	-11.0785
▁놓는	-11.0788
▁될수	-11.079
▁하려면	-11.0796
▁깨달았	-11.0798
▁버려야지	-11.08
신기하	-11.0803
▁청춘이	-11.0807
▁그럴까요	-11.0811
정신없	-11.0811
▁나타났	-11.0812
▁내려놓기	-11.0813
남을	-11.0818
▁썸인가요	-11.0819
▁말하면	-11.0822
▁0	-11.0822
▁똑같	-11.0823
▁이대로	-11.0827
▁짰	-11.083
▁백업해	-11.0832
▁없고	-11.0832
▁특	-11.0833
▁넘어	-11.0836
▁배고프	-11.0838
특히	-11.0839
서울	-11.0844
▁먹나	-11.085
▁가시	-11.0853
▁순수하	-11.0855
▁알게되면	-11.0856
▁힘들겠죠	-11.0861
▁따지	-11.0863
▁지워지	-11.0864
▁급해	-11.0866
부담스러워하	-11.0866
▁사람이었어	-11.0877
▁웃기	-11.0879
▁무너지	-11.0879
▁뜻밖	-11.088
▁연락하기	-11.0889
▁팩	-11.0889
기사	-11.0892
속상할거	-11.0893
길래	-11.0894
▁만족해	-11.0894
▁사랑했어	-11.0898
▁이뤄지	-11.0901
일하는	-11.0902
▁헛	-11.0904
▁머리로	-11.0904
▁갠톡	-11.0906
▁볶	-11.0912
▁가슴은	-11.0917
▁맞는거	-11.0917
상일	-11.0921
▁드라이브	-11.0929
▁빠른	-11.093
▁과식	-11.0931
긍정적이	-11.0934
약해지	-11.0935
▁자다	-11.0935
▁휴학	-11.0939
▁표현에	-11.0942
▁그에게	-11.0942
.,1	-11.0942
▁모자라	-11.0945
....	-11.0949
▁보는데	-11.0951
픈	-11.0951
▁받아줄	-11.0953
▁너무하네	-11.0961
이라서	-11.0962
공기	-11.0966
▁믿었	-11.0966
▁아파트	-11.0966
▁비만	-11.0968
▁자신다	-11.0969
▁아파서	-11.0973
▁단점	-11.0974
▁연락오	-11.0974
▁오나봐	-11.0975
▁이상한가	-11.0979
▁중독인가	-11.098
▁마무리하	-11.0982
▁치열해	-11.0982
▁쓸쓸하	-11.0984
▁저만	-11.0985
재밌	-11.0991
▁변해가는	-11.0993
▁닮아	-11.0995
틀	-11.0998
▁아무말	-11.1
보려구	-11.1004
▁짝	-11.1006
▁저음이	-11.1009
▁넘었	-11.1014
▁하아	-11.1017
▁나가지	-11.1018
이지	-11.1019
▁작	-11.102
▁어색한	-11.102
▁사귄지	-11.1025
▁자라	-11.1031
▁애인이	-11.1032
▁짜	-11.1032
현금이	-11.1033
▁불금이	-11.1036
▁힘든거	-11.1039
▁데서	-11.1043
▁힘들지만	-11.1043
▁기대하	-11.1053
▁지내요	-11.1057
▁진도	-11.1064
▁타면	-11.107
차이	-11.1077
▁말만	-11.1078
▁왔	-11.1084
▁에이	-11.1085
▁고민이네	-11.1089
▁욕하는	-11.1095
▁줘야	-11.11
▁뒀	-11.1102
▁쪄	-11.1102
▁기네	-11.1103
안됩니다	-11.1106
정신과	-11.1109
▁무덤덤해	-11.1111
▁산다	-11.1112
어야	-11.1122
▁날이네	-11.1123
열까지	-11.1124
같네	-11.1124
카공	-11.1127
▁흥미	-11.1133
인사	-11.1137
▁약간	-11.1148
▁몰아	-11.1161
아파	-11.1161
▁사회생활	-11.1161
▁썼다	-11.1161
잊지	-11.1165
▁욕을	-11.1167
되어있는	-11.1184
▁무지	-11.1192
▁대리	-11.1192
▁기다리게	-11.1197
▁껴	-11.1198
▁동기	-11.1212
궁금	-11.1212
▁보내세요	-11.1213
친구로서	-11.1219
오지마	-11.1229
▁없어졌	-11.1235
▁활	-11.1238
물가	-11.124
▁우연	-11.1247
▁전과	-11.1251
▁재미있	-11.1254
년하고	-11.1263
▁호의	-11.1267
▁출	-11.1271
다니기	-11.1275
정리하는	-11.1278
익숙함이	-11.1282
▁욕심	-11.1294
▁할말	-11.1303
▁해줬으면	-11.1305
▁할까요	-11.1312
안해	-11.1327
▁편하고	-11.1335
할까요	-11.1339
무리	-11.1339
▁지금보다	-11.1344
▁태도에	-11.1345
▁놀러갈	-11.1346
▁특별	-11.1348
▁신중	-11.1355
▁병신	-11.1358
소음	-11.1361
▁죽었	-11.137
▁원하	-11.1375
▁감정들	-11.1378
▁넘은	-11.1383
▁부여하	-11.1384
▁퍼	-11.1388
이번달	-11.1391
페이	-11.1396
▁산책	-11.1399
었지만	-11.1403
▁되는건	-11.1404
▁다르니	-11.1405
일지	-11.1407
▁챙겨줘	-11.1414
기에	-11.1418
▁상관이	-11.1419
▁틀어	-11.1429
▁지금이	-11.1434
라네	-11.144
▁역	-11.1455
▁좋아하지	-11.1456
▁공허함이	-11.147
▁흐르면	-11.1478
둘다	-11.1487
▁크겠	-11.1489
편이	-11.1493
▁집앞	-11.1506
이니까	-11.1512
▁도와드	-11.1514
끝이네	-11.1518
▁장기	-11.1523
▁끝이났	-11.1524
하려면	-11.1526
▁나름	-11.1529
다는데	-11.153
▁동물이	-11.1535
지우	-11.154
부러	-11.1549
▁그럼	-11.1556
▁자리에	-11.1557
▁웃어주	-11.1559
▁단순	-11.1564
미있는	-11.1565
어쩔수없	-11.1565
▁본받	-11.1574
큰일	-11.158
▁소개해	-11.1586
▁심경	-11.1587
▁나오겠	-11.1588
▁그리운가	-11.1593
▁지속해	-11.1605
준비하는방법	-11.1608
▁인내	-11.1611
정리하	-11.1617
시는	-11.1619
▁일인가봐	-11.162
앞	-11.1621
가을이	-11.1627
잘하	-11.1633
▁받는다는	-11.1636
▁지나간	-11.1655
▁경	-11.1657
▁극	-11.1658
하고싶다	-11.1666
▁속이는	-11.1667
▁추억들	-11.1667
▁극복해	-11.1668
▁공통	-11.1669
▁시급	-11.1673
▁든든	-11.1683
날려	-11.1684
▁할지	-11.1692
확실하	-11.1694
▁찾아왔	-11.1699
▁제자리걸음	-11.1703
겼어	-11.1706
인줄	-11.1707
▁티나	-11.171
▁도망	-11.1712
▁잊으려	-11.1718
▁두근거리	-11.172
▁침대	-11.1729
▁맞이	-11.1739
하다고	-11.1739
고싶다	-11.174
졌는데	-11.1742
▁길에	-11.1746
▁아프지	-11.1757
▁보았	-11.1777
▁계절	-11.1782
▁병이	-11.1788
▁결국은	-11.179
해버렸네	-11.1792
▁기다리다	-11.1794
▁낙이	-11.1794
▁걸어보	-11.1795
▁갔는	-11.1801
인데요	-11.1801
것은	-11.1803
때리는	-11.1805
▁바람난	-11.1812
만나	-11.1812
나보네	-11.1812
▁달콤	-11.1814
▁잘해야	-11.1824
▁사랑하나	-11.1826
▁달라졌	-11.1833
도움	-11.1844
▁멍청한	-11.1852
▁접은	-11.1853
이게	-11.1854
▁풀어보	-11.1854
▁보기만	-11.1858
▁서점에	-11.1867
▁아름다	-11.1872
▁부리	-11.1874
시도	-11.1879
잘되고	-11.1915
▁시원하	-11.1916
걱정하	-11.1918
▁합	-11.1929
▁여지	-11.193
▁달라지	-11.1934
네ᅮ	-11.1939
던데	-11.1942
극복	-11.1958
소식을	-11.196
신청	-11.1964
▁당연한	-11.1968
깔끔	-11.197
▁이별이에요	-11.1971
걱정	-11.1971
원합니다	-11.1973
▁모임에	-11.1975
▁탈이	-11.1991
어이가	-11.1994
▁찍었	-11.1995
▁많나	-11.1998
▁보였	-11.201
▁해야하는	-11.2017
하시는	-11.2024
▁알았다	-11.2028
비와	-11.203
▁술이	-11.2032
던게	-11.2044
해본	-11.2046
▁안할	-11.2048
▁질려하	-11.2052
▁아파하	-11.2053
▁만들까	-11.2066
▁잊혀져	-11.207
받았다	-11.207
▁겠지	-11.2072
뻔	-11.2074
었나요	-11.2074
하고싶은	-11.2082
▁기분전환	-11.211
▁났	-11.2111
▁괴	-11.2124
당하기	-11.2125
▁확실하	-11.2128
▁기도	-11.2129
▁정신없	-11.2143
▁피곤	-11.2144
상처받는	-11.2148
데려다주려	-11.2158
▁사랑하세요	-11.2161
▁안하면	-11.2167
▁싸우기	-11.217
▁싶을	-11.2182
▁본다	-11.2183
이다	-11.2185
쳐버리	-11.219
▁살려	-11.2196
된다	-11.2204
▁슬퍼하	-11.2224
▁전역	-11.2228
▁애인	-11.2232
했다면	-11.2253
▁돼지	-11.2254
▁적을	-11.2255
▁쓰지	-11.2257
▁어떻해	-11.2267
눈에	-11.2278
▁요구하	-11.2285
▁기적	-11.2286
해줬	-11.229
고파	-11.2303
▁즐겨	-11.2306
▁어디가	-11.231
준비하	-11.2311
안갈	-11.2319
들어가	-11.2323
았나봐	-11.2329
▁하니	-11.2332
어찌	-11.2337
글자	-11.2347
▁반복하	-11.2365
야해	-11.2371
로그	-11.2372
▁어떡하	-11.238
▁헬스장	-11.2388
▁수면	-11.2388
▁줬으면	-11.2414
돼야	-11.2415
선의	-11.2417
답이	-11.2428
▁맞춰가	-11.2431
서도	-11.244
장소에	-11.2457
▁다양하	-11.2458
효도	-11.2461
▁향기	-11.2463
린대	-11.2476
▁아무는	-11.248
여친이	-11.2482
▁신고	-11.2493
▁울면	-11.2497
▁그러는	-11.2497
▁슬프네	-11.2497
사랑한다	-11.2509
▁벌어	-11.251
▁치맥	-11.2518
▁첫이별	-11.2521
▁든다	-11.2535
옆	-11.2537
줬	-11.2555
었지	-11.2577
해야할듯	-11.2587
잊지말	-11.2604
잘하니	-11.2621
▁이겨	-11.2623
일을	-11.2625
▁뭐였	-11.2631
지못한	-11.2633
▁가까워	-11.264
▁답답하	-11.2646
▁놓아줄	-11.2647
궁금하다	-11.2653
구질	-11.2655
고장	-11.2659
꼼꼼한	-11.2665
끈	-11.2676
해가	-11.2682
▁시간이었을	-11.2685
▁우정이	-11.2692
▁웃으면	-11.2694
끔하	-11.2705
▁일이었	-11.2713
타는	-11.2714
어지고	-11.273
달라는	-11.2732
▁아픈가	-11.2737
익숙해지는	-11.2738
▁도와주세	-11.2741
오길	-11.2762
▁즐겨보	-11.2769
집착하지	-11.2775
한눈	-11.2785
▁어이	-11.2793
거든	-11.2802
▁알바하면	-11.2806
맘이	-11.2806
화가	-11.281
▁검색해	-11.2814
어진다	-11.2819
▁하루였	-11.2843
▁소원	-11.2853
▁했는	-11.2856
▁표현하	-11.286
▁씻어	-11.286
생인데	-11.286
▁들어오	-11.2861
▁말로	-11.2869
난거	-11.2878
▁화냈	-11.2882
▁힘들어하	-11.2883
▁말라	-11.289
간단	-11.2894
▁나라	-11.2904
나들이	-11.292
▁부족했	-11.2922
▁입는	-11.2931
▁입어보	-11.2938
▁얼어	-11.2969
▁얻는	-11.2981
▁잔소리해	-11.2992
▁짧아	-11.3
▁상처주	-11.3003
버렸습니다	-11.3009
▁임	-11.3014
▁헤어지자네	-11.3025
비참한	-11.3026
▁헤어지고나	-11.303
▁날까	-11.3031
달만에	-11.3045
겟	-11.3047
▁보름달	-11.3053
역할	-11.3054
▁지켜보는	-11.3059
▁사랑해줘	-11.3076
한가봅니다	-11.3084
였는	-11.309
되가는데	-11.3095
방에	-11.3111
▁남나	-11.3118
▁것일	-11.3119
▁의	-11.3121
행복해	-11.3126
나와	-11.3142
받아	-11.3146
▁사랑해요	-11.3146
▁절친	-11.3217
▁재미있는	-11.322
보낼	-11.3243
▁간절	-11.326
▁났어	-11.3281
▁할때	-11.3288
적이	-11.3293
▁비가오	-11.3296
물이	-11.3296
▁이야기는	-11.3309
저기	-11.3311
할텐데	-11.3311
▁헤어져야하	-11.3321
▁낙	-11.3333
포기하지	-11.3338
▁나약	-11.3339
▁이어지	-11.334
▁안풀	-11.3344
늘	-11.3354
▁고치고	-11.3368
▁잔인	-11.3374
워야	-11.3377
▁접어두는	-11.3409
한게	-11.3416
▁인정해야	-11.3424
▁나날	-11.3427
▁신나	-11.344
었나	-11.3456
후회해	-11.3457
▁연애였	-11.3464
▁응원해	-11.3472
▁꿨는	-11.3473
▁잊어볼	-11.3474
로맨틱해	-11.3484
▁교회에	-11.3485
▁날인	-11.3491
있나봐	-11.3497
붙	-11.351
하겠어	-11.353
해보는	-11.3559
하지마	-11.3565
▁안좋아	-11.3566
다녀야	-11.3572
▁반응해	-11.3587
▁알아줄	-11.3593
▁알아주	-11.3593
▁그나	-11.3601
▁박	-11.3618
▁잊어버리는	-11.363
▁일부	-11.3632
▁솔직해	-11.3636
▁붙잡으	-11.3638
▁어쩔수	-11.3652
▁그랬을	-11.3654
일과	-11.3661
막막하	-11.3663
▁민	-11.3672
▁어떤건	-11.3674
▁과에	-11.3678
▁아쉽겠	-11.3679
▁공시생	-11.3691
▁지키	-11.3701
해하지	-11.3706
공부하	-11.3714
다니고	-11.3722
자리	-11.3737
▁서점	-11.374
값이	-11.3741
▁얼굴이	-11.3752
▁약인	-11.3754
바쁘네	-11.3755
▁날이었	-11.3765
▁아프겠	-11.3771
,2	-11.3775
보이	-11.3785
▁미워해	-11.3791
▁깎아	-11.3803
남편	-11.3813
▁걸렸	-11.3817
▁말해야	-11.3818
▁위험하	-11.382
▁많겠	-11.3829
을까요	-11.3831
▁로맨틱	-11.3833
▁도와드릴	-11.3852
▁익숙해	-11.3853
▁연락올	-11.3866
▁터지	-11.3869
정적	-11.3877
전이	-11.3889
▁집앞에	-11.3889
▁부여	-11.3893
▁침대에	-11.3897
▁준비하면	-11.3902
▁어렵겠지	-11.3913
이였어	-11.3913
소식에	-11.392
▁의지하	-11.3923
웃으	-11.3932
▁이어나가	-11.3938
났네	-11.3938
▁봐야	-11.3946
표	-11.3956
▁덜하	-11.3978
▁친해지	-11.3986
▁성숙	-11.3989
▁준비하느	-11.401
많	-11.4025
놓	-11.4029
올랐다	-11.4039
좋겠	-11.4046
남에	-11.4056
껴	-11.4066
▁브	-11.4068
반복되	-11.4079
▁차이일	-11.408
▁좋아졌	-11.409
▁피나	-11.4099
떡	-11.4105
괜찮	-11.4127
달렸나봐	-11.4131
▁재회하고	-11.4133
▁보자	-11.418
부담	-11.4185
▁친구라	-11.4185
▁대상	-11.4191
애매	-11.4192
내세요	-11.4193
▁사이라	-11.4199
이었을까	-11.4204
워보	-11.4206
▁생각하기	-11.4208
받지	-11.4219
▁내릴	-11.4246
안돼	-11.4251
▁약해	-11.4254
할수	-11.4264
▁되었는	-11.4267
지식	-11.427
내년	-11.4272
없네	-11.4273
매력	-11.4277
▁않다	-11.4277
업	-11.4289
있겠죠	-11.4293
재회	-11.4299
▁지지	-11.4314
화장	-11.4314
할인	-11.4316
▁여행가고	-11.4318
▁괜찮아졌다	-11.4321
▁있었지	-11.4322
▁불금	-11.4323
솔직	-11.4323
▁싫지	-11.4327
해야하나	-11.4344
좋을까	-11.4349
차분하	-11.435
았	-11.4362
▁깔끔하	-11.4377
빠질	-11.4379
▁왜이	-11.4379
▁성덕	-11.4388
생일	-11.4389
이름	-11.4399
▁답인	-11.4399
▁그만하	-11.4406
▁잘되	-11.4409
▁생겼을	-11.4415
▁반가	-11.4417
필수	-11.442
▁옆	-11.4424
만나고	-11.4425
휴	-11.4427
▁부질없	-11.4428
기지	-11.4432
▁허무하	-11.4436
챙겨	-11.4437
하더라고요	-11.4437
▁순수	-11.444
▁구별해	-11.4441
가운	-11.4447
자가	-11.4451
했습니다	-11.4454
▁기술	-11.4478
보러	-11.4479
가왔습니다	-11.4479
뜻하	-11.4494
흔들리	-11.4495
선택	-11.45
한다는	-11.4505
▁살만	-11.4508
▁오겠	-11.4509
말도	-11.4509
▁보내보	-11.4524
사전	-11.4524
▁보시	-11.4534
나가고	-11.4548
▁쿨	-11.4549
그리워	-11.4556
▁결혼하는	-11.456
▁만들어보	-11.4561
▁그만둬	-11.4561
습관	-11.4562
랐나봐	-11.4569
남은	-11.4574
일어나	-11.4574
백한다	-11.458
사회	-11.4594
중간	-11.4604
▁다했다	-11.4605
높	-11.4606
▁시간인가	-11.4613
다듬	-11.4613
쓸데	-11.4622
요일	-11.4624
하우스	-11.4627
후련하다	-11.4629
위험하	-11.4632
▁밤이	-11.4634
공감	-11.4636
충	-11.4639
체가	-11.464
혔어	-11.4641
6	-11.4645
야근	-11.4647
학생	-11.4648
첫사랑	-11.4649
세포	-11.4649
싸	-11.4649
▁착각하	-11.4656
반복	-11.4659
▁전화하고	-11.4661
이었는데	-11.4661
블	-11.4667
여의	-11.4668
오랜만	-11.4668
어볼까	-11.4669
▁달려	-11.4672
달력	-11.4672
사귀는	-11.4674
척하는	-11.4676
미끄러	-11.4679
단순	-11.468
주말	-11.4684
야경	-11.4685
방학	-11.4689
기름	-11.4691
중독	-11.4692
태	-11.4693
경우	-11.4695
걷다	-11.4703
▁끌	-11.4703
▁말들	-11.4708
▁참을	-11.4709
간대	-11.4711
가지만	-11.4714
향기	-11.4716
증이	-11.4723
탈출	-11.4725
목소리	-11.4725
졸업	-11.4726
어느정도	-11.4727
인터넷	-11.4728
인다	-11.4729
나한테	-11.4729
손편지	-11.473
입장	-11.473
찌	-11.473
담배	-11.473
발표	-11.4731
어색한	-11.4735
싱숭생숭	-11.4739
피부	-11.4739
조절	-11.474
촬영	-11.474
좌절	-11.474
탈모	-11.4741
아빠	-11.4741
키우	-11.4743
키스	-11.4743
정해져	-11.4743
대하는	-11.4743
실패	-11.4743
성별	-11.4744
쓸	-11.4745
버스	-11.4746
생각나네	-11.4747
어제	-11.4747
▁싶어서	-11.4749
존재	-11.4749
허전한	-11.4751
언제쯤	-11.4752
선톡	-11.4753
방향	-11.4753
정답	-11.4753
헤어질	-11.4754
친구들이	-11.4754
액	-11.4755
패	-11.4756
똑같	-11.4759
사귈	-11.4761
시키	-11.4761
사귀면	-11.4761
오랜	-11.4762
▁미련없	-11.4763
굳	-11.4764
빙	-11.4764
예민한	-11.4766
어울리	-11.4766
끌	-11.4766
좋아하시	-11.4766
갑작스럽	-11.4767
▁돌보	-11.4767
태어난	-11.477
흑역사	-11.4771
센	-11.4772
서툴러	-11.4772
허리	-11.4772
배고프	-11.4772
동생한테	-11.4773
▁후회하지	-11.4773
위로해	-11.4774
아이스크림	-11.4774
무의식	-11.4774
졸업식	-11.4775
자격증	-11.4775
가치관이	-11.4777
구두	-11.4778
▁변하는	-11.4779
버려야지	-11.4779
인스타	-11.4779
축구	-11.4779
축	-11.478
봉사활동	-11.478
트라우마	-11.478
노래방	-11.4781
콩깍지	-11.4781
취미생활	-11.4781
광	-11.4782
모쏠	-11.4783
설렜	-11.4783
정신차리	-11.4783
부족한	-11.4783
자존심	-11.4783
한켠	-11.4783
잘지내	-11.4783
등산	-11.4783
고마워	-11.4784
맨	-11.4784
소문	-11.4785
개념	-11.4785
찜질방	-11.4785
짜장면	-11.4785
첫인상	-11.4785
멋져	-11.4785
사생활	-11.4785
가능해요	-11.4787
있네	-11.4788
끝났네	-11.4788
구속	-11.4788
마침표	-11.4788
케이스	-11.4788
예비	-11.4789
에너지	-11.4789
오랫	-11.479
영원한	-11.479
상황을	-11.4791
반갑	-11.4791
표현하는	-11.4792
30	-11.4792
걱정하지	-11.4792
사탕	-11.4793
쏟아	-11.4794
▁욕해	-11.4794
됐	-11.4794
떠오르	-11.4795
패턴	-11.4795
핑계	-11.4796
잠수이별	-11.4796
무릎	-11.4797
집착	-11.4797
어둠	-11.4798
마무리	-11.4798
집안일	-11.4798
염색	-11.4798
부자	-11.4798
▁변해가	-11.4799
업무	-11.48
미팅	-11.48
읽씹	-11.48
즐겁	-11.4801
방문	-11.4801
학생이	-11.4801
따듯	-11.4802
메모	-11.4802
▁비워보	-11.4802
침대	-11.4802
한달	-11.4803
그녀에게	-11.4803
듣고	-11.4804
빚	-11.4805
위험	-11.4806
사실	-11.4807
은퇴	-11.4808
털	-11.4809
딴	-11.4809
소모	-11.481
조용	-11.4812
욕해	-11.4814
▁좋았겠	-11.4816
9	-11.4817
버림	-11.4819
솔	-11.4819
해결	-11.4819
판단	-11.4819
▁싫어해	-11.482
고맙다	-11.4821
똑똑	-11.4821
배울	-11.4821
인형	-11.4822
자리에	-11.4823
깨달음	-11.4823
▁옥	-11.4823
춥	-11.4824
짠	-11.4824
땀	-11.4824
땅	-11.4824
▁매달	-11.4825
다정한	-11.4828
짝사랑하는	-11.4832
나쁘	-11.4832
여우	-11.4836
▁정리해야	-11.4836
불편	-11.4836
갚	-11.4837
부려	-11.4837
허전하	-11.4839
선택할	-11.4841
이혼이	-11.4842
어쩌	-11.4843
100	-11.4843
씻	-11.4844
삼	-11.4844
에휴	-11.4846
받아들	-11.4849
낫네	-11.4852
이상한	-11.4854
절약	-11.4856
이쁜	-11.4857
단수	-11.4859
알아봐	-11.4859
제발	-11.486
▁손이	-11.4861
기술이	-11.4862
시작할	-11.4863
배우는	-11.4864
투자	-11.4864
사랑한다면	-11.4864
아니었나	-11.4865
▁따듯	-11.4865
막말	-11.4866
좋아하는데	-11.4867
외로움	-11.4868
먼	-11.4869
▁깨달	-11.4869
▁관계에	-11.487
독서	-11.487
▁지우는	-11.4871
▁생각할수	-11.4875
배우자	-11.4877
헤아	-11.4878
꿨	-11.4878
온대	-11.4885
▁싫어하나	-11.4885
하루에도	-11.4889
편하고	-11.489
뽑	-11.4894
헷갈	-11.4896
이혼	-11.4896
일주일이	-11.4896
▁전하면	-11.49
행복하게	-11.4905
생각날	-11.4907
나올	-11.491
헤어	-11.4916
울적	-11.4917
주차	-11.4918
▁느낀	-11.4919
맞춰가	-11.4919
코스	-11.4926
▁잃	-11.4928
붙는	-11.4928
심장	-11.4928
있다	-11.493
▁받으	-11.4936
는것	-11.4943
들었어	-11.4946
▁구멍	-11.4951
사랑하기	-11.4951
걱정이	-11.4952
어야죠	-11.4952
시켜야	-11.4953
어린	-11.4957
하루에	-11.496
▁직업	-11.4967
심리	-11.4967
말로	-11.4969
미루	-11.497
야근이	-11.4971
쓸데없	-11.4972
꿈에서	-11.4974
주제	-11.498
▁죽는	-11.4981
성향	-11.4983
말하는	-11.4985
▁한데	-11.4987
직하	-11.499
신가요	-11.499
힘이	-11.499
의욕	-11.5005
기술	-11.5006
돌아오	-11.5007
부담되	-11.5009
포근	-11.502
사랑하나	-11.502
▁질거	-11.5028
남기	-11.503
▁말아보	-11.5031
▁표현할	-11.5031
▁기억들	-11.5032
말하지	-11.5033
만나자는	-11.5035
▁확인하	-11.5037
일요일	-11.504
이루	-11.5041
잘해야	-11.5048
못하겠어	-11.5048
친구로	-11.505
▁프	-11.505
치과	-11.5053
재미있는	-11.5058
살기	-11.5059
▁모르니	-11.5061
젠	-11.5061
가족이	-11.5064
놓아주	-11.5066
▁싫은가	-11.5071
밀어	-11.5071
▁짝사랑이	-11.5078
▁복전하	-11.5079
이해	-11.5079
먹는	-11.508
위험할	-11.5081
▁덤덤해	-11.5091
알고	-11.5093
▁안맞	-11.5096
헛헛하	-11.5096
스타일이	-11.5097
제로	-11.5099
▁날에	-11.5102
찾	-11.5106
▁익숙	-11.5111
사주	-11.5113
상처를	-11.5118
당신에게	-11.5124
▁이별했	-11.5125
나긴	-11.5129
이상형이	-11.5132
쁜	-11.5136
▁다녀오	-11.5137
살고	-11.5138
▁밉	-11.5146
아지길	-11.5149
사람이다	-11.5151
안되	-11.5153
▁수학여행	-11.5158
이미	-11.5158
지쳐	-11.5161
남보다	-11.5165
▁머릿	-11.5166
기운을	-11.5171
▁늙어	-11.5172
야할지	-11.5172
루	-11.5176
근한	-11.5177
로우니	-11.5178
▁생각했	-11.5179
▁추스	-11.519
화장하	-11.5192
조급하	-11.5196
▁거래	-11.5197
▁안됐	-11.5202
▁적극적이	-11.5203
▁40	-11.5203
▁반가워	-11.5204
▁잘생겼	-11.5204
람을	-11.5206
믿는	-11.5209
길러	-11.5223
어지지	-11.5224
없다가	-11.5227
마셔	-11.523
고치고	-11.523
마지막이	-11.523
은거	-11.5236
다치	-11.5239
갔네요	-11.5243
데이트하기	-11.5244
맥	-11.525
이직	-11.5251
놓으	-11.5252
▁아쉬움	-11.5255
▁영화보	-11.5256
▁질문	-11.5257
▁쟁취하	-11.5259
났으면	-11.5266
환	-11.5269
▁심심하다	-11.5271
그치	-11.5273
▁써야	-11.5274
폭풍	-11.5276
당황했	-11.5277
▁바보라	-11.5277
▁되시	-11.5278
들어도	-11.528
▁권	-11.5282
안하는	-11.5285
▁밤인	-11.5285
▁하셔야	-11.5286
▁어떠	-11.5287
▁흔적이	-11.5302
불가	-11.5303
▁불효	-11.5304
▁두셨	-11.5304
▁스타	-11.5306
습기	-11.5315
감성적	-11.5317
▁늙	-11.5319
쩌	-11.532
된다는	-11.5322
▁대단	-11.5322
귄	-11.5325
▁컸	-11.5326
▁신청해	-11.5328
십	-11.5328
똥	-11.5329
현	-11.533
친구에게	-11.533
끗	-11.533
괜찮은거	-11.5332
킨	-11.5333
▁태어났	-11.5335
▁자유로워	-11.5335
▁씌	-11.5335
▁엮	-11.5335
행복이	-11.5335
▁끓	-11.5335
예뻐해	-11.5336
떠보	-11.5336
험해	-11.5336
쑥	-11.5337
첨	-11.5337
▁희생	-11.5337
▁밝	-11.5337
탄	-11.5337
앗	-11.5337
▁컴	-11.5337
뚝	-11.5338
찢	-11.5338
텔	-11.5338
▁렌	-11.5338
▁어울릴	-11.5338
▁비행기	-11.5338
탐	-11.5338
덩	-11.5338
댓	-11.5338
▁돌싱	-11.5338
웽	-11.5338
▁날카로워	-11.5338
▁애매모호	-11.5338
▁조명빨	-11.5338
깅	-11.5338
뚱	-11.5338
띰	-11.5338
뻤	-11.5338
섬유	-11.5338
웁	-11.5338
챘	-11.5338
캔	-11.5338
▁규	-11.5338
▁깐깐	-11.5338
▁취뽀	-11.5338
닦	-11.5338
섣부르	-11.5338
%	-11.5338
;;,	-11.5338
CC	-11.5338
D	-11.5338
O	-11.5338
P	-11.5338
X	-11.5338
c	-11.5338
go	-11.5338
▁감정컨트롤	-11.5338
▁거리두기	-11.5338
▁건강검진	-11.5338
▁관절염	-11.5338
▁교직이수	-11.5338
▁금사빠	-11.5338
▁기획사	-11.5338
▁깬	-11.5338
▁깼	-11.5338
▁꼴	-11.5338
▁나쁨	-11.5338
▁낙엽	-11.5338
▁노처녀	-11.5338
▁논문	-11.5338
▁덮	-11.5338
▁띵	-11.5338
▁롤	-11.5338
▁모태솔로	-11.5338
▁묻	-11.5338
▁부딪혀	-11.5338
▁부딪히	-11.5338
▁북받쳐	-11.5338
▁블랙박스	-11.5338
▁빡빡	-11.5338
▁상견례	-11.5338
▁샐러드	-11.5338
▁서툴어	-11.5338
▁섞	-11.5338
▁소풍	-11.5338
▁숏컷	-11.5338
▁식욕폭발	-11.5338
▁실험실	-11.5338
▁썰	-11.5338
▁예식장	-11.5338
▁웨딩	-11.5338
▁웨딩드레스	-11.5338
▁의사표시	-11.5338
▁재택근무	-11.5338
▁전기장판	-11.5338
▁주저리주저리	-11.5338
▁쥐꼬리	-11.5338
▁짬뽕	-11.5338
▁춘곤증인가	-11.5338
▁컨트롤	-11.5338
▁켠	-11.5338
▁클스마스	-11.5338
▁탄탄	-11.5338
▁폰겜	-11.5338
▁피어싱	-11.5338
▁햇볕	-11.5338
▁헌팅	-11.5338
▁험담	-11.5338
▁헤헤	-11.5338
▁호박씨	-11.5338
▁화풀이	-11.5338
▁훈	-11.5338
걍	-11.5338
곱씹	-11.5338
괘씸하	-11.5338
권이	-11.5338
균	-11.5338
귤	-11.5338
그리웠나	-11.5338
깃	-11.5338
꽂	-11.5338
꿩	-11.5338
넛	-11.5338
넥	-11.5338
뇨	-11.5338
눴	-11.5338
닭	-11.5338
뒹	-11.5338
랭	-11.5338
렉	-11.5338
룰	-11.5338
룸	-11.5338
룽	-11.5338
릭	-11.5338
맹	-11.5338
뮤	-11.5338
밭	-11.5338
벨	-11.5338
불륜	-11.5338
붓	-11.5338
뷔	-11.5338
빽	-11.5338
뽀송	-11.5338
뿅	-11.5338
삔	-11.5338
샘	-11.5338
섯	-11.5338
섹	-11.5338
솜	-11.5338
쇠	-11.5338
스몰웨딩	-11.5338
씰룩	-11.5338
옛	-11.5338
왼	-11.5338
익숨함	-11.5338
젝	-11.5338
줍	-11.5338
쥬	-11.5338
즙	-11.5338
짤	-11.5338
쨌	-11.5338
찔러	-11.5338
쳇	-11.5338
층	-11.5338
캄	-11.5338
캐	-11.5338
컷	-11.5338
템	-11.5338
흡	-11.5338
▁가르쳐	-11.5338
▁괴로웠을	-11.5338
▁반배정	-11.5338
▁쌍커풀	-11.5338
▁정동진	-11.5338
▁콕콕	-11.5338
;	-11.5338
▁김치볶음밥	-11.5338
▁깜깜	-11.5338
▁두근두근	-11.5338
▁들켰	-11.5338
▁뽀뽀	-11.5338
▁사투리	-11.5338
▁얇	-11.5338
▁옮	-11.5338
▁으악	-11.5338
▁젊	-11.5338
▁중소기업	-11.5338
▁지겹	-11.5338
▁쪘	-11.5338
▁찾아갔습니다	-11.5338
▁풍부	-11.5338
▁행동일수도	-11.5338
메이크업	-11.5338
죄송해	-11.5338
▁동문서답	-11.5338
▁마찬가지	-11.5338
▁뺏	-11.5338
▁슈퍼문이	-11.5338
▁처량하	-11.5338
▁탄생	-11.5338
▁텁텁	-11.5338
녔	-11.5338
돌아섰	-11.5338
버렸나	-11.5338
징글	-11.5338
찡	-11.5338
칩	-11.5338
▁견딜	-11.5338
▁고구마	-11.5338
▁무뚝뚝해	-11.5338
▁씨앗	-11.5338
▁진부한	-11.5338
▁댓글	-11.5338
▁들이댔	-11.5338
▁조교하면	-11.5338
넹	-11.5338
쑤	-11.5338
찹	-11.5338
▁근황	-11.5338
▁식도염	-11.5338
▁황사	-11.5338
윙	-11.5338
▁술주정	-11.5338
▁거슬려	-11.5338
▁카풀	-11.5338
▁메시지	-11.5338
▁해결방안	-11.5338
▁스킨	-11.5338
▁쪽팔	-11.5338
▁넘어질뻔	-11.5338
▁양면과	-11.5338
▁태몽	-11.5338
겉모습	-11.5338
▁핸드	-11.5338
▁포근포근	-11.5338
▁헤어졋	-11.5338
▁허무해	-11.5338
▁체육	-11.5339
▁감미로	-11.5339
▁서먹해	-11.5339
▁드러내	-11.5339
구분짓	-11.5339
▁가라앉혀	-11.5339
걸레질	-11.5339
알뜰	-11.5339
▁유세부	-11.5339
▁소홀	-11.5339
언제가	-11.5339
▁렌즈	-11.5339
▁중간중간	-11.5339
▁처방	-11.5339
▁호텔	-11.5339
하소연	-11.5339
▁뻔뻔	-11.5339
▁진심이	-11.5339
▁폭식	-11.5339
▁광탈	-11.5339
▁초조해	-11.5339
▁문화센터	-11.5339
▁일반적이	-11.5339
▁팔뚝	-11.5339
▁담담하	-11.5339
▁애써봐	-11.5339
▁스킨쉽	-11.5339
▁텅비	-11.5339
▁어장관리	-11.5339
경제력	-11.5339
▁대리님	-11.5339
▁출국	-11.5339
▁부작용	-11.5339
댄디	-11.5339
▁팔찌	-11.5339
▁건물주	-11.5339
수십번	-11.5339
▁멀미	-11.5339
▁선연하	-11.5339
▁대충	-11.5339
▁소액	-11.5339
▁기뻐해	-11.5339
▁쳐다봄	-11.5339
▁영화보재	-11.5339
▁원망스럽	-11.5339
▁눌러	-11.5339
▁독학하	-11.5339
▁국경	-11.534
부담된다	-11.534
어째서	-11.534
▁폭식증	-11.534
▁복합적	-11.534
▁놀이터에	-11.534
▁퇴사	-11.534
▁그만할래	-11.534
▁짜증난다	-11.534
▁짝사랑이었네	-11.534
▁마음가짐	-11.534
▁괴로운	-11.534
▁변명거리	-11.534
▁답변	-11.534
▁단톡에	-11.534
▁주저리	-11.534
▁헤어졌을때	-11.534
▁뜬금	-11.534
▁떠나갔네	-11.534
▁쓸모	-11.534
▁꽃바구니	-11.534
왔다갔다	-11.534
▁허전해	-11.534
▁문콕	-11.534
▁무뎌져	-11.534
▁후련해졌	-11.534
▁후덜덜	-11.534
▁타입인	-11.534
▁감추는	-11.5341
▁살려줘	-11.5341
▁한심하네	-11.5341
▁양다리	-11.5341
▁다음날	-11.5341
▁인형뽑기	-11.5341
합시다	-11.5341
▁고시생	-11.5341
▁머물	-11.5341
▁강해지	-11.5341
▁야구장	-11.5341
▁비교돼	-11.5341
존경	-11.5341
▁지옥이네	-11.5341
▁맞출까	-11.5341
▁씁쓸하네	-11.5341
▁삐져	-11.5341
▁잠식시키	-11.5341
▁잊었다	-11.5341
▁입소문	-11.5341
▁잊어버려	-11.5342
▁앞서서	-11.5342
빌어먹을	-11.5342
▁대충했	-11.5342
순위	-11.5342
▁무색해지네	-11.5342
▁데려달라고	-11.5342
▁먹먹함	-11.5342
▁구걸하	-11.5342
친구들	-11.5342
▁끝냈습니다	-11.5342
▁내려놔	-11.5342
▁꼬셔	-11.5342
▁수상한데	-11.5342
▁부담스러운데	-11.5342
▁사치인	-11.5342
▁성급	-11.5343
▁숨쉬	-11.5343
▁일어난	-11.5343
잡히네	-11.5343
▁기름값	-11.5343
▁되어갑니다	-11.5343
▁친추	-11.5343
년동거	-11.5343
▁잡담	-11.5343
▁돌아온	-11.5343
▁끝인거겠죠	-11.5343
▁필요했을텐데	-11.5343
▁영역	-11.5343
▁떠올라	-11.5343
▁비왔으면	-11.5343
▁씌었나봐	-11.5343
▁영원했으면	-11.5344
잊기싫은	-11.5344
▁말았네	-11.5344
▁뽑아	-11.5344
▁서운한거	-11.5344
▁바보짓	-11.5344
▁시누	-11.5344
▁진담	-11.5344
받아들여야할	-11.5344
▁엊그	-11.5344
▁다가온	-11.5344
▁외박	-11.5345
▁자야하는데	-11.5345
▁청강	-11.5345
▁괴롭혀	-11.5345
▁떠나갔어	-11.5345
▁탓인지	-11.5345
난처	-11.5345
▁공허하네	-11.5345
▁촉이	-11.5345
▁물건	-11.5345
쳐올	-11.5345
▁불러준	-11.5345
아이구	-11.5345
▁확실해졌	-11.5345
▁매순간	-11.5345
▁골인	-11.5346
▁잔인하네	-11.5346
▁찾으	-11.5346
▁시절	-11.5346
국물	-11.5346
▁신입	-11.5346
▁데려다줬는데	-11.5346
▁해낸	-11.5346
투덜	-11.5346
▁끊었으면	-11.5346
▁새롭	-11.5346
▁잊어야한다는	-11.5347
▁가혹	-11.5347
▁애키우	-11.5347
▁긴장돼	-11.5347
▁남은걸까	-11.5347
될것같	-11.5347
▁예전처럼	-11.5347
대부분	-11.5347
▁받아드리	-11.5347
▁못믿겠	-11.5347
▁장난친	-11.5347
▁바래다	-11.5347
▁여기까지였나	-11.5348
▁못받	-11.5348
▁선물해	-11.5348
▁산이네	-11.5348
▁초초	-11.5348
▁취급	-11.5348
▁솔직했으면	-11.5348
▁예민해져	-11.5348
▁따위	-11.5349
동아리에	-11.5349
▁주름	-11.5349
냈는데	-11.5349
▁학교생활	-11.5349
▁개당황	-11.5349
▁고백해도될까	-11.5349
주룩	-11.5349
▁먹먹	-11.535
▁이용당	-11.535
우니	-11.535
▁대학교	-11.535
▁해결해줄	-11.535
▁비례	-11.535
▁싫었는데	-11.535
불타오르	-11.535
▁잠들기	-11.535
크게	-11.535
원하던	-11.535
▁컸으면	-11.5351
▁떠났습니다	-11.5351
주눅들	-11.5351
▁태어났으면	-11.5351
▁아휴	-11.5351
▁원두	-11.5351
▁착각일까	-11.5351
환해	-11.5351
▁신기해	-11.5352
▁귀엽대	-11.5352
▁달라질까	-11.5352
▁작별	-11.5352
갱신	-11.5352
▁"4	-11.5353
킬	-11.5353
발등	-11.5353
▁버려달라고	-11.5353
▁지침	-11.5353
변덕스러운	-11.5354
▁절망적	-11.5354
▁끝냈는데	-11.5354
▁돌아다니	-11.5354
언제부터인지	-11.5354
▁기계	-11.5354
▁정리되었길	-11.5355
▁경과	-11.5355
▁냄새날	-11.5355
▁열받아서	-11.5355
▁맞추려고	-11.5355
▁엉망	-11.5355
하기로했	-11.5355
▁맞는거겠죠	-11.5356
▁냉정할	-11.5356
▁퇴근시간	-11.5356
▁부담돼	-11.5356
▁소용	-11.5356
▁아플까	-11.5357
▁하품	-11.5357
주정도	-11.5357
▁괜찮았는데	-11.5358
▁봐야겠다	-11.5358
크림	-11.5358
▁돌아올거	-11.5358
▁쌓아	-11.5359
달반	-11.5359
▁은퇴후	-11.5359
▁잊고싶다	-11.5359
▁식단	-11.5359
▁사갈까	-11.5359
▁심란	-11.5359
▁눈빛	-11.536
▁가족같은	-11.536
▁어디있을까	-11.536
▁무서운건	-11.536
▁놓쳤다	-11.536
키니	-11.5361
따르	-11.5361
학번	-11.5361
▁사랑했다는	-11.5361
▁나날이었	-11.5361
▁않았을텐데	-11.5361
▁깨졌는데	-11.5361
▁비추	-11.5362
▁사라질까	-11.5362
▁시켜줘	-11.5362
▁몸매	-11.5362
▁간지러	-11.5362
▁결재	-11.5362
뜨문	-11.5362
찬하	-11.5362
미칠꺼	-11.5362
▁받았습니다	-11.5363
▁파혼했어	-11.5363
▁겁이나	-11.5363
▁털어	-11.5363
▁또라이	-11.5364
꾸룩	-11.5364
▁울었어	-11.5364
▁차리래	-11.5364
▁임신	-11.5365
▁싶었는데	-11.5365
▁듣고싶어	-11.5366
▁돌아간	-11.5366
가운데	-11.5366
▁만나고왔어	-11.5366
▁발렌타인데이인데	-11.5366
▁솔로야	-11.5367
▁순간들이	-11.5367
▁파마	-11.5367
▁지키기	-11.5367
▁한쪽	-11.5368
▁떨어졌	-11.5368
개월간의	-11.5369
▁떨어진	-11.5369
▁삼주	-11.5369
▁보름	-11.5369
▁힘든거네	-11.5369
▁안되는건가	-11.5369
▁답일까	-11.537
▁나오지	-11.537
릴까	-11.537
▁시린	-11.5371
▁방구	-11.5371
▁털어버	-11.5371
▁회의감	-11.5372
▁주체할	-11.5372
던곳	-11.5372
명언	-11.5372
▁불효자	-11.5373
▁돌봐	-11.5373
해본적	-11.5373
▁결혼생활	-11.5374
▁갖는	-11.5374
▁오늘밤	-11.5374
▁사랑꾼	-11.5375
▁결혼해야할까	-11.5375
▁판단하지	-11.5375
▁설레발	-11.5375
▁느끼나	-11.5376
잊으	-11.5376
▁무난	-11.5376
▁이번주	-11.5376
▁쓰디	-11.5376
바구니	-11.5377
▁올려봅니다	-11.5377
▁레고	-11.5377
▁면세	-11.5378
출할	-11.5378
▁잘생긴	-11.5378
▁화났	-11.5381
▁취향인데	-11.5381
▁순진	-11.5381
개월동안	-11.5381
▁그런건지	-11.5382
▁완벽해지	-11.5382
▁마음이란게	-11.5382
▁먹여주나	-11.5382
▁떠오르네	-11.5383
초반	-11.5384
▁사겼는데	-11.5384
▁알아버렸	-11.5384
어질	-11.5385
▁후회돼	-11.5385
근무	-11.5385
▁담아	-11.5385
인척	-11.5387
▁낫겠	-11.5387
무덤덤한데	-11.5388
겟죠	-11.5388
▁온천	-11.5388
▁안돌아오나	-11.5389
무뎌진	-11.5389
관에	-11.5389
▁필요없어	-11.539
▁만나지말	-11.539
▁보조	-11.539
▁몇번	-11.5391
▁피해자	-11.5391
▁다음주	-11.5391
▁졸리	-11.5391
덤덤하게	-11.5391
▁전남자친구	-11.5392
웠으면	-11.5392
▁화살	-11.5392
▁사이트	-11.5392
환상	-11.5392
직감	-11.5393
▁긴여	-11.5393
▁이것만	-11.5393
을거	-11.5393
▁노답이	-11.5394
▁죽음	-11.5394
진행중	-11.5394
▁해주기	-11.5395
▁생일이야	-11.5396
▁오후	-11.5397
▁느끼게	-11.5398
▁기부	-11.5398
▁그런거지	-11.5399
액션	-11.5399
▁괜찮아지길	-11.54
▁오르고	-11.5401
통이	-11.5402
▁쓰여	-11.5402
기네	-11.5402
모닝	-11.5403
▁힘드네ᅮ	-11.5403
▁약이라는	-11.5403
▁배부르	-11.5404
▁깨지고	-11.5404
겨울에	-11.5405
리스	-11.5406
▁같았나	-11.5406
▁들었는데	-11.5406
이별하신	-11.5406
느껴진다	-11.5408
▁적응해	-11.5409
올릴까	-11.541
갔네	-11.541
▁은퇴	-11.5411
▁어쩌죠	-11.5412
▁남아있나	-11.5412
▁심심하다고	-11.5412
▁헤어지신	-11.5413
헤어졌으니까	-11.5414
운명적	-11.5414
고쳐	-11.5415
동성애	-11.5415
▁사줄까	-11.5416
▁죽고싶	-11.5416
▁썼는데	-11.5416
▁찾아오길	-11.5416
건들이	-11.5417
▁사랑스럽	-11.5417
▁멋있어	-11.5418
스럽다	-11.5418
▁붙어	-11.5419
보네	-11.542
▁그놈	-11.542
▁들어줄래	-11.5421
▁갈구	-11.5421
▁생겼대	-11.5421
▁가출	-11.5423
▁이겨내기	-11.5423
리마	-11.5423
▁심정	-11.5423
▁전화하기	-11.5423
▁자유로워질까	-11.5423
▁잘지내고	-11.5423
▁차임	-11.5424
▁같을까	-11.5424
▁쳐다보	-11.5424
▁쓰이네	-11.5424
▁사랑이였	-11.5424
▁장수	-11.5427
▁감당이	-11.5428
▁지워버리	-11.5428
▁후련해	-11.543
▁찾아볼까	-11.543
쓰담	-11.5431
▁철벽치	-11.5431
걸어다니	-11.5432
자제하는	-11.5432
생에	-11.5432
▁구상	-11.5433
▁위안	-11.5433
▁무뎌졌	-11.5433
▁모질	-11.5434
▁힘드신	-11.5434
여행지에서	-11.5434
▁초기	-11.5435
▁꾸는데	-11.5437
▁사실일	-11.5438
▁아프니까	-11.5438
▁위대한	-11.5438
▁모른	-11.544
▁마디	-11.544
▁무사	-11.5441
▁흐음	-11.5442
할꺼야	-11.5442
▁그렇겠지	-11.5442
▁소통	-11.5443
▁먹방	-11.5444
을거야	-11.5445
▁엿같	-11.5445
▁무너졌	-11.5447
당사자만	-11.5448
▁나이먹	-11.545
용서	-11.5451
▁휘둘리	-11.5452
▁질린다	-11.5453
▁봄방학	-11.5453
미안함	-11.5454
▁메일	-11.5455
망이지	-11.5455
▁불만만	-11.5455
▁정상인가	-11.5456
▁나올까	-11.5456
▁짝사랑중	-11.5458
▁회의	-11.5459
▁털어내	-11.5459
▁솔로인	-11.5462
회복되	-11.5463
▁상메에	-11.5463
▁무색하게	-11.5463
▁해야겠어	-11.5468
▁답장해	-11.547
▁흘렀는데	-11.547
부끄러	-11.5471
▁정리해야지	-11.5471
▁기차	-11.5472
▁모자	-11.5472
▁제사	-11.5473
내키는	-11.5475
▁노래들	-11.5476
그분과	-11.5477
실수했다	-11.5478
▁외로울	-11.5479
▁안오	-11.5479
▁본인만	-11.5479
▁나오는데	-11.548
▁안되겠지만	-11.5481
인간적	-11.5482
▁놀려	-11.5485
▁없었나봐	-11.5486
▁다시만나	-11.5487
▁화나고	-11.5488
▁일주일째	-11.5489
▁지내는데	-11.5491
수수한	-11.5491
▁못잊을	-11.5493
▁보이는데	-11.5493
▁불안한	-11.5494
▁꺼질	-11.5494
추세	-11.5496
▁끝이보	-11.5498
▁질리게	-11.5498
▁이별할때	-11.5499
예상	-11.55
할까봐	-11.55
놓은	-11.55
▁오늘부	-11.5502
▁설레게하	-11.5503
공감되	-11.5505
▁잊어가	-11.5506
▁뭘해도	-11.5506
▁오긴	-11.5506
▁내려놓으면	-11.5509
▁맘대로	-11.5509
참아왔	-11.551
▁못하나봐	-11.5511
▁단어	-11.5513
휴우	-11.5513
▁동거중	-11.5518
▁있다는데	-11.5521
▁생활비	-11.5521
▁매달리	-11.5522
데이인데	-11.5523
직한	-11.5523
▁티비	-11.5524
▁양심	-11.5525
▁젖어	-11.5526
않으려고	-11.5527
▁이루어질	-11.5529
▁힘드나	-11.553
▁잘지내고있	-11.5531
생각하기	-11.5533
▁밉다	-11.5534
일째인데	-11.5537
▁취직이	-11.5539
▁지웠	-11.554
▁시켰	-11.554
▁누구니	-11.5542
▁이별하려	-11.5542
▁도자기	-11.5543
▁초라해	-11.5544
▁이별이야기	-11.5544
~~,	-11.5545
▁높이	-11.5547
하던가요	-11.5547
▁전화할	-11.5548
▁머릿속에	-11.555
두분이	-11.5554
▁온다면	-11.5554
▁찰랑	-11.5554
▁개인	-11.5555
사가	-11.5562
바싹	-11.5562
세우	-11.5563
답답하신가	-11.5563
▁삐	-11.5565
쓰레기통	-11.5565
▁밑	-11.5566
싶어요	-11.5567
▁술이야	-11.5571
▁냉정해	-11.5572
▁필요할까	-11.5572
그립지만	-11.5574
정량	-11.5574
▁썩	-11.5574
▁떨어지지	-11.5575
▁씁쓸	-11.5576
▁말했으면	-11.5578
▁먹었나봐	-11.5578
▁없었어	-11.5581
거같네	-11.5581
▁수순	-11.5582
▁기운내	-11.5582
▁찾아갔네	-11.5583
가입	-11.5585
▁푸석	-11.5586
▁꼈어	-11.5586
▁억울	-11.5587
▁불쌍	-11.5588
▁치킨	-11.5588
▁힘들줄	-11.5589
▁부모	-11.5589
▁한마디	-11.559
▁집사	-11.559
▁불안하	-11.5591
▁속지말	-11.5591
▁감수	-11.5592
▁대쉬해	-11.5593
▁주절	-11.5593
▁근질	-11.5593
▁책보	-11.5594
▁입맛없	-11.5594
▁100	-11.5594
▁피시방	-11.5595
▁휴유증	-11.5595
▁감기약	-11.5596
▁힘드셨	-11.5597
▁모양	-11.5597
▁낮술	-11.5597
어머나	-11.5598
▁그후	-11.5598
▁자금	-11.5599
▁바람둥이	-11.5599
▁것이겠죠	-11.56
처음만	-11.5601
▁나쁜놈	-11.5601
▁홀	-11.5602
보내주려	-11.5603
▁길거리에	-11.5604
▁의미일까요	-11.5604
▁받았나	-11.5604
▁남이죠	-11.5605
▁지금까지	-11.5606
▁예를	-11.5606
▁당했습니다	-11.5606
▁봤으면	-11.5606
▁장난치	-11.5608
▁심난	-11.5608
했을	-11.5611
▁이후	-11.5612
▁환장	-11.5613
사람에	-11.5614
꼬시지	-11.5614
아리	-11.5615
좋으면서	-11.5617
▁놀라	-11.5618
라구	-11.5619
▁연기	-11.5619
▁차라	-11.562
▁응원해주면	-11.5621
▁안내는	-11.5622
▁너덜너덜해	-11.5623
▁남녀	-11.5624
▁끈	-11.5626
▁구해야	-11.5626
▁세월이	-11.5626
착이	-11.5627
▁착해	-11.5628
고쳤	-11.5629
▁한달인데	-11.563
▁멀어진다는	-11.5631
▁여친과	-11.5632
쓰는	-11.5632
▁아니었나	-11.5633
▁다가가기	-11.5637
▁오나	-11.5641
▁이야기하고	-11.5641
는건가	-11.5642
애석	-11.5646
▁매정	-11.5647
▁벗어	-11.5649
▁성숙해지	-11.5649
사랑해요	-11.565
▁떠나보내	-11.5651
▁의심하지	-11.5652
▁못잊는	-11.5653
아무일	-11.5654
▁잘못이지	-11.5655
▁신경쓰인	-11.5656
▁낀	-11.5658
섭섭하	-11.5658
잊어보려고	-11.566
내면	-11.5661
잘해준	-11.5662
▁흔들	-11.5662
▁사줄	-11.5663
▁오니	-11.5665
▁화내는	-11.5668
고통	-11.5668
▁외로워서	-11.5668
▁술기운	-11.5669
▁억	-11.5669
▁카톡하는	-11.567
▁잘해줘서	-11.567
잊혀지려	-11.5671
▁황당해	-11.5673
▁똑똑	-11.5674
▁비싸다	-11.5683
려야	-11.5686
▁기분이야	-11.5688
적하지	-11.5689
▁듬	-11.5691
▁되돌리	-11.5692
▁끈이었	-11.5699
기능	-11.5701
▁잘했다	-11.5701
전할	-11.5701
잘라	-11.5704
▁털	-11.571
지망	-11.5711
비꼬는	-11.5712
어보	-11.5712
▁끝나네	-11.5712
▁어떤거	-11.5717
▁미루는	-11.5722
▁알지만	-11.5723
▁직업이	-11.5723
▁사람이었	-11.573
▁아프지만	-11.5732
▁덜해	-11.5732
생긴	-11.5733
▁신기	-11.5734
▁아프죠	-11.5737
▁보드	-11.5739
▁감당	-11.574
▁속지	-11.5742
▁다른반	-11.5744
▁보수적	-11.5744
▁가까워지	-11.5745
아른거	-11.5745
유발	-11.5747
▁사랑했는데	-11.5749
▁하트	-11.5754
▁훈훈하	-11.5755
챙겼	-11.5759
▁않겠지	-11.5774
성이	-11.5775
▁경우에	-11.5777
야하나봐	-11.5778
▁뿌리	-11.5789
▁무뎌지는	-11.5792
▁친절하	-11.5794
▁일상으로	-11.5794
▁받아들여요	-11.5797
▁은퇴해야	-11.5799
▁조심해야겠	-11.5809
▁달래	-11.5812
기면	-11.5812
▁잊혀지네	-11.5818
▁이별인가봐	-11.5819
▁원망하	-11.582
민가	-11.582
▁노력한	-11.5831
▁확	-11.5833
꿈같	-11.5837
▁짱나	-11.584
▁불안	-11.5841
▁대신	-11.5841
▁카톡하지	-11.5844
말이라	-11.5845
▁가볼까	-11.5847
▁지쳐가네	-11.585
▁없음	-11.585
▁힘들대	-11.5854
말로만	-11.5859
▁해주	-11.5859
음식	-11.586
▁둬	-11.5862
인과	-11.5865
▁사라지	-11.5866
▁투자하는	-11.5868
▁잘지내	-11.587
▁붙잡으려	-11.5871
마시러	-11.5871
▁날이야	-11.5872
▁차단하	-11.5877
▁추우니	-11.5878
보고싶다	-11.5878
▁헛헛하	-11.5881
▁좋아하는건가	-11.5884
▁가는거	-11.5886
서글	-11.5889
▁안열	-11.5895
▁축	-11.5895
▁아파할	-11.5899
걸리겠어	-11.5904
▁챙겨줄	-11.5923
▁유학간	-11.5923
▁과식했	-11.5924
것에	-11.5925
여름	-11.5925
▁광	-11.5925
▁주차	-11.5928
공부한	-11.5929
행복해지	-11.5933
법이	-11.5935
자사람친구	-11.5943
▁패	-11.5945
▁굳	-11.5946
▁빙	-11.5946
▁못자고	-11.595
▁헌신하	-11.5953
▁예비	-11.5953
나에게	-11.5956
거같은데	-11.5957
했잖아	-11.5958
▁음	-11.596
참을	-11.596
애정	-11.5968
▁깨졌	-11.5971
타이	-11.5972
▁방향	-11.5972
▁좌절	-11.5973
▁촬영	-11.5973
▁실패	-11.5974
▁미쳤	-11.5974
▁영화보자	-11.5975
곳에	-11.5976
▁탈모	-11.598
▁인터넷	-11.5987
▁살다	-11.5987
▁키스	-11.5988
수라	-11.5988
▁엄청나	-11.599
▁모르겠지	-11.5991
▁손편지	-11.5992
▁애야	-11.5994
▁붙잡을	-11.5997
▁구두	-11.5999
▁쓰다	-11.6
한순간에	-11.6
▁정해져	-11.6
▁불렀	-11.6
▁어느정도	-11.6002
▁존중하	-11.6003
▁잘라야	-11.6004
▁전여친이	-11.6004
▁번복	-11.601
잡으려고	-11.6011
▁취업하	-11.6011
한거니	-11.6011
샤워해	-11.6012
▁줬다	-11.6016
중고	-11.6021
배우	-11.6024
이성이	-11.6026
되도	-11.6027
아무말	-11.6028
▁정리하려	-11.6034
▁모르나봐	-11.6036
별의	-11.6037
▁단수	-11.6038
미안해하	-11.604
▁낸다	-11.6041
▁연애끝	-11.6043
▁취향이	-11.6049
짝사랑에서	-11.6053
▁못하네	-11.6054
만이라	-11.6057
▁놔주	-11.6058
긴했는데	-11.6061
▁끝내는	-11.6063
▁존재하	-11.6063
▁깊이	-11.6067
▁잠겼	-11.6068
부족하	-11.607
▁커지기	-11.6072
▁세포	-11.6081
▁못잊는거	-11.6085
것만	-11.6086
▁타로	-11.6091
척이	-11.6092
▁막혔	-11.6095
▁잘된	-11.6097
일이야	-11.6099
싫	-11.61
생각났	-11.6107
▁궁금한게있	-11.6108
▁그사람은	-11.6114
▁하는건가	-11.6114
▁때문일까	-11.6116
▁해외여행가	-11.6121
▁내장	-11.6122
▁짜증나게	-11.6127
슬프	-11.6128
▁아끼는	-11.6136
▁기억에	-11.6137
▁일이네	-11.6142
▁다듬	-11.6145
반짝	-11.6146
▁후련할거	-11.6146
▁라는	-11.6147
되기	-11.6151
▁전하	-11.6154
▁만나러가	-11.6154
▁이해못	-11.6155
▁죄인	-11.6156
▁풀어주	-11.6158
▁한사람	-11.6158
▁못내는	-11.6163
▁정리해야할	-11.6167
트인	-11.6173
내야하나	-11.6174
▁선물할	-11.6174
▁역할	-11.6183
▁그만둬야	-11.6188
▁첫사랑인	-11.6188
▁운명인	-11.6194
▁같기도	-11.6195
▁타이밍인	-11.6203
해봤어요	-11.6208
▁비워	-11.6209
▁없었겠	-11.6209
상해	-11.6209
▁보냈	-11.6211
▁반복될까	-11.6216
▁마음가는	-11.6219
▁내맘같	-11.6219
정상	-11.622
▁왕따인	-11.6226
▁사랑이었	-11.623
혼전	-11.6232
▁여부	-11.6236
충전기	-11.624
▁부러	-11.6247
▁귀여	-11.6255
▁아니였	-11.6263
▁강요하	-11.6265
긴이별	-11.6269
▁놈이	-11.6273
▁녹	-11.6273
▁생각나서	-11.6275
알바해보	-11.6283
▁가라	-11.6284
▁말려	-11.6287
▁독서	-11.6287
▁못잊겠	-11.6289
▁이별했어	-11.6291
▁롱	-11.6292
먹어보	-11.6292
라진	-11.6295
▁처음이라	-11.6298
▁할래	-11.6299
▁이별이었	-11.6301
▁응	-11.6302
▁근	-11.6315
▁걱정되	-11.6315
▁싫어할	-11.6316
▁적절	-11.6319
기회	-11.632
고프다	-11.6323
겼다	-11.6326
▁결정했	-11.6328
▁조금이	-11.6328
▁쌈	-11.6331
▁틈	-11.6331
▁까먹지	-11.6334
부질없는	-11.6338
▁구별	-11.6339
과제	-11.6347
만두	-11.635
▁시작할	-11.6354
▁심각	-11.6354
▁떨리네	-11.6358
▁다녀온	-11.6361
▁먼저하는	-11.6363
나가	-11.6368
채나	-11.6373
▁정성	-11.6375
▁지쳐가	-11.6386
▁걷는	-11.639
같	-11.6391
▁니	-11.6396
▁염탐하	-11.6398
▁울적하	-11.6406
▁키워보	-11.641
▁질질	-11.641
▁이해하	-11.6412
생각나	-11.6413
▁투	-11.6414
▁면	-11.6417
▁폭	-11.6418
▁올라오	-11.6428
▁쿨하	-11.6429
▁안한	-11.643
▁어색할까	-11.6432
감각	-11.6438
▁씻기	-11.644
▁존중하는	-11.6444
▁묻어두는	-11.6444
▁견디기	-11.645
를까	-11.6459
정치	-11.646
구만	-11.6464
▁따듯해	-11.6466
동을	-11.6468
▁머	-11.6473
▁달력	-11.6473
돌아보	-11.6494
▁줄이고	-11.6495
표인	-11.6497
▁만큼만	-11.6503
답답했	-11.6521
▁기다려보	-11.6524
▁친구사이	-11.6524
▁메리	-11.6527
▁짝사랑하	-11.6536
물리	-11.6539
▁일주일이	-11.6541
느리	-11.6544
▁행복하지	-11.6555
▁놓쳤	-11.6555
▁모의	-11.656
▁모르지	-11.6578
▁많은걸	-11.6579
있죠	-11.6587
▁최악이	-11.6588
▁멀어	-11.6593
▁지우려	-11.6599
▁척도	-11.66
편	-11.6601
▁비참하	-11.6604
▁아련하	-11.6605
▁나빠졌	-11.6609
쉬어	-11.6615
▁숨기	-11.6628
▁익숙해졌	-11.6628
▁잠들	-11.663
▁빈	-11.6633
▁거는	-11.6633
▁위로받	-11.6644
자식	-11.6645
▁이쁘	-11.6646
▁사랑합니다	-11.6647
▁하는걸	-11.6656
▁햇	-11.6658
돋을	-11.6659
▁안돼나	-11.6668
▁기복	-11.6673
▁이별후에	-11.6681
▁잡기	-11.6683
있는데	-11.6695
▁견	-11.6697
상처들	-11.6703
지우는게	-11.6708
▁생각한다	-11.6708
▁꽝이	-11.6712
▁포기하려	-11.6717
됐으면	-11.6718
여친	-11.6726
▁기억안	-11.6728
분들께	-11.6731
정확하	-11.6731
▁아쉽	-11.6734
올려달	-11.6737
▁아니었나봐	-11.6748
▁S	-11.6752
▁가리	-11.676
▁처음이	-11.6761
▁노력해야	-11.6762
▁중이	-11.6779
▁구경	-11.678
▁직장인이	-11.6788
▁애틋	-11.6788
▁프사가	-11.6796
▁성숙해	-11.6802
사랑이었으	-11.6807
생각입니다	-11.6808
▁투자라	-11.6809
▁겨울에	-11.6812
▁안해야	-11.6813
나네	-11.6814
▁만들어주	-11.6815
▁차렸을	-11.6823
▁들려	-11.6823
▁행동을	-11.6825
▁커피향	-11.6829
기다려보	-11.6836
▁했더	-11.6849
내줄게	-11.6854
▁바본	-11.6854
▁연애상담	-11.6856
▁잊어야해	-11.6857
나온	-11.6862
▁전부였	-11.6863
▁두려운가	-11.6864
로라	-11.6866
▁대상이	-11.6872
배려	-11.6878
▁것에	-11.6883
▁잠수이별인	-11.6888
▁생겼는	-11.6889
▁클럽가	-11.6892
▁여자야	-11.6895
갈래	-11.6896
▁언	-11.6905
▁정으로	-11.6909
해졌나봐	-11.6912
물이라	-11.6917
적어	-11.6926
다는것	-11.6933
▁놓아줬	-11.6957
▁다쳤	-11.6963
확인	-11.6965
▁왕	-11.697
하라	-11.697
▁할일	-11.6975
상화	-11.6978
▁부담스러워해	-11.6989
▁입장	-11.6991
▁습관이라	-11.6998
▁했었	-11.7
▁시작하기	-11.7001
▁못했는	-11.7004
학원에	-11.7008
적을	-11.7009
▁불행해	-11.7009
▁울었	-11.7011
▁초대하	-11.7014
▁바람이	-11.7014
▁헤어진다	-11.7023
사고	-11.7023
▁직	-11.7029
았다	-11.7038
▁꿈이었	-11.7046
▁쉽지않	-11.706
▁들었	-11.7062
가도	-11.7062
▁제자리	-11.7063
버리기	-11.7068
▁차별받	-11.7082
▁상처받아	-11.7091
건너	-11.7099
비해	-11.7099
▁구하는	-11.7099
조언부탁	-11.7103
천하	-11.7104
▁간에	-11.7105
▁가수	-11.7113
▁찍은	-11.7114
▁매달렸	-11.7119
▁서운하겠	-11.712
▁리액션	-11.712
덤덤해졌	-11.7123
▁높이는	-11.7127
이너	-11.715
▁필수	-11.7152
▁있으신	-11.7152
는거같아	-11.7168
▁피곤하겠	-11.7178
▁단계라	-11.7183
▁했을까	-11.7208
▁자유시간	-11.7212
못해	-11.7212
▁다가갈	-11.7219
▁오래걸	-11.7223
▁보고싶어요	-11.7224
▁단톡방에	-11.7233
▁살았다	-11.724
필요없	-11.7256
▁놓으려	-11.7278
▁궁	-11.7279
있는건지	-11.7286
▁지키는	-11.7289
사람친구	-11.7309
정성	-11.7323
▁편식	-11.7331
▁너랑	-11.7344
▁막막	-11.7345
살릴	-11.7348
월해	-11.735
점이	-11.7363
서점에	-11.7387
▁갑작스러	-11.7392
급하	-11.7394
▁나을가	-11.7395
뭐냐	-11.74
ᄒ	-11.7401
▁좋아보여	-11.7405
오늘이	-11.7412
▁내릴까	-11.7412
▁철벽이	-11.7413
▁실망했	-11.7445
▁참아야겠	-11.7446
끝이라고	-11.7447
▁저장할	-11.7449
▁잊어야겠	-11.746
사랑이란	-11.7465
▁살인	-11.7473
의자	-11.7474
▁식상	-11.7475
▁삼가	-11.7493
사랑에서	-11.7497
들겠지	-11.75
▁냉정하	-11.754
▁걷다	-11.7606
새장	-11.7608
▁안해서	-11.7623
▁망설여지	-11.7635
▁부르는	-11.7645
▁하고싶어	-11.7648
으려고	-11.7654
▁별이	-11.7655
하자는	-11.7664
날이	-11.7667
인상	-11.7671
후련	-11.7671
달래	-11.7673
하셨나	-11.7679
▁차단한	-11.768
▁거절인	-11.7682
꺼야	-11.7683
사귀자	-11.7687
져야	-11.7708
었을까	-11.7712
▁놓았	-11.7719
▁중독	-11.7727
▁궁금할	-11.7728
▁못나	-11.7739
▁떠나보	-11.7739
▁못하니	-11.7744
어찌보	-11.7747
못된	-11.7759
▁많을까	-11.777
갈까	-11.777
▁욕먹	-11.7773
▁떠나요	-11.7779
▁밤이네	-11.7786
방심	-11.7809
▁마셨어	-11.781
▁생각해봐	-11.7812
▁사랑만	-11.7829
하려나	-11.7832
▁밥도	-11.7837
▁지나갔네	-11.7843
▁나오는	-11.7859
▁반이라	-11.787
상처받았	-11.7878
▁터지겠	-11.7885
▁풀렸다	-11.7885
걱정되겠	-11.7891
▁봐봐	-11.7893
정말끝이	-11.79
는걸까	-11.7901
▁실수하	-11.7925
▁표현해주	-11.793
▁붙였	-11.7934
▁체	-11.795
▁변할까	-11.7986
▁남긴	-11.7995
▁백	-11.8009
▁일기	-11.8011
▁절친이	-11.802
▁오래타	-11.8027
▁필요해보	-11.804
겨울	-11.806
왔으면	-11.8074
어진	-11.8086
▁꿈이라	-11.8091
▁돌아왔	-11.8096
인이	-11.8111
거였네	-11.8117
▁의자	-11.812
▁그지	-11.8123
려지	-11.8127
편하	-11.8135
▁남을까	-11.8142
▁쌓이	-11.8163
▁도서관에	-11.8171
▁건강하	-11.8173
나랑	-11.8177
연애하다	-11.8181
▁방심	-11.8208
▁전해지	-11.822
기간	-11.8237
쓰기	-11.8248
답이야	-11.8248
▁타나봐	-11.8257
지려고	-11.8273
나쁜건지	-11.8281
고있었는데	-11.8282
▁보름달이	-11.8284
시간만큼	-11.8287
▁반이	-11.8295
르는	-11.8303
▁그리	-11.8316
▁관심있는	-11.8326
의지	-11.8354
▁영상	-11.8354
▁반하	-11.8357
▁운동하자	-11.8361
깔끔하	-11.8381
▁터졌	-11.8387
힘드시	-11.8393
▁잔소리	-11.8401
로운	-11.8422
잘못으로	-11.848
▁기억나	-11.8487
먹었다	-11.8495
라이	-11.8497
뻔했	-11.8503
고의	-11.8514
슬퍼	-11.8514
돌이	-11.8523
다는걸	-11.8533
▁군대가	-11.8535
▁술마시면	-11.8541
▁건들	-11.855
▁공시생이	-11.8551
▁준다	-11.8561
▁당신만	-11.8577
진정하	-11.858
▁게임하	-11.8587
올거	-11.8588
다네	-11.8589
▁헤어지겠	-11.8589
▁혼자라는	-11.8595
▁대하는	-11.862
▁생겼다는	-11.8623
사랑하	-11.8624
극복하	-11.8653
것인가	-11.8682
▁힘겨	-11.8687
끔	-11.8697
와주	-11.8709
▁운동해	-11.8717
▁건네	-11.8718
확실	-11.8727
▁몰랐네	-11.8733
거겠지	-11.8751
▁고백해보	-11.8764
▁지켜야	-11.8767
▁달리	-11.8769
▁잘못했다	-11.877
▁오래가	-11.8777
▁모임이	-11.8782
▁나약하	-11.8783
▁오늘로	-11.8797
으시는	-11.8797
▁이별할	-11.8803
▁색	-11.881
▁피곤할	-11.8812
▁지내자	-11.8819
▁끝내려	-11.882
▁결혼준비	-11.8825
그여자	-11.8828
▁그러려	-11.8842
▁보자는	-11.8853
▁해가	-11.8856
▁없을거	-11.8859
▁환승이	-11.8869
▁바라보	-11.8891
▁결혼이	-11.8897
그러니	-11.8904
▁마주보	-11.8907
한건지	-11.8909
▁살거	-11.8916
같아요	-11.8929
주의	-11.894
▁중요한가	-11.8941
▁이마	-11.8946
▁아침이에	-11.8952
적으	-11.8956
▁청소하	-11.8966
다른일	-11.8981
▁여자에	-11.8992
▁좋아하면서	-11.9002
로워	-11.9025
▁준비해야	-11.9028
이러니	-11.9031
▁좋아했	-11.9037
올라	-11.9043
관계인가	-11.9046
▁얼마전	-11.905
▁것인가	-11.9054
복잡하	-11.9058
▁가득한가	-11.906
고가	-11.9067
▁차였	-11.9074
▁알겠	-11.9101
이었나	-11.9108
▁마지막이	-11.9124
▁급	-11.9146
▁비슷한가	-11.9161
중한	-11.9166
▁ᄏ	-11.9171
려오네	-11.9172
▁만들었	-11.919
▁불타	-11.9203
▁불타올	-11.9213
▁순간에	-11.9218
감당	-11.9221
만족	-11.9233
별이에요	-11.9235
▁가네	-11.9251
▁싸움이	-11.9286
이상하지	-11.9306
▁헤어진건	-11.9306
▁일일	-11.9317
닫고	-11.9328
서서	-11.9334
능력	-11.9341
▁편안	-11.9351
앞이	-11.9356
▁시간들	-11.9365
▁힘든건	-11.9368
인가보다	-11.9368
▁신청했	-11.937
냈	-11.9375
▁경험	-11.9376
▁만날수	-11.9388
해줄까	-11.9394
▁연습하	-11.9404
할지	-11.9438
▁아닌것	-11.9439
▁현재	-11.9444
▁꼼꼼	-11.9462
포기	-11.9466
▁끝나가	-11.9468
▁경험해보	-11.9469
▁소중하	-11.947
▁되버렸	-11.9473
오려나	-11.9482
으면서	-11.9482
했더	-11.9486
▁끝났다	-11.9501
까먹었	-11.9516
해드리	-11.9528
채워	-11.954
▁샤워하	-11.954
▁차단했	-11.9542
원한	-11.9549
▁긴장하	-11.9576
▁사랑하는건	-11.9579
히는	-11.9582
▁잊지마	-11.9611
▁이사가	-11.9612
▁못하는거	-11.9622
▁몇시간	-11.9716
▁운동하면	-11.9718
어렵	-11.9742
▁비교	-11.9762
▁선택했	-11.978
되겠지	-11.979
긴다	-11.9799
들지만	-11.9813
했다는	-11.9825
▁갔다왔	-11.9845
데도	-11.9852
▁생각했을	-11.9869
▁내길	-11.989
▁두려	-11.9894
▁하자	-11.9914
싶어지네	-11.9922
▁현실적	-11.9922
▁한달됐	-11.9928
기대하면	-11.9946
재밌겠	-11.9955
▁같았	-11.9956
▁내편	-11.9963
▁혼자있	-11.9969
기다려	-11.9971
만하는	-11.9973
아파하	-11.9983
▁뒤숭숭	-12.0012
같죠	-12.0026
은것같	-12.0032
~~~,	-12.0033
▁들리네	-12.0044
▁인스타에	-12.0045
▁사전	-12.0055
▁왜이러	-12.0061
▁결혼준비하	-12.0074
음악이	-12.0089
기예	-12.0122
▁사랑받	-12.0131
왔을	-12.0131
받아서	-12.0144
▁가득한	-12.0147
잊혀져가	-12.0154
▁비가오니	-12.0156
됐습니다	-12.0172
▁움	-12.0179
▁깨지	-12.0181
▁차단이	-12.0187
▁의외인	-12.0193
▁풀었	-12.0194
된거	-12.0195
는건지	-12.0215
▁잘못했다는	-12.022
▁중요하겠지	-12.0224
▁놀리	-12.0225
▁밥먹	-12.023
긴가	-12.0235
▁질려	-12.0243
~~~	-12.0256
▁결혼식이	-12.0279
보고싶어	-12.028
었다는	-12.0297
▁연애할	-12.0303
▁운명인가	-12.0314
▁겨울이	-12.0315
▁무시했	-12.0317
▁케	-12.032
▁따뜻하	-12.033
아온	-12.0334
려달라고	-12.0334
▁돌아보	-12.0335
남자들	-12.0339
상대로	-12.035
▁들어주	-12.0363
정확	-12.0377
황당하	-12.0383
▁문제네	-12.0405
궁금하네	-12.0409
돌아	-12.0411
▁대하	-12.0412
▁휴지	-12.0431
아볼	-12.0438
하겠지	-12.0444
▁흐르네	-12.0461
▁극복한	-12.0478
▁회사가	-12.0483
맞	-12.0493
▁고백이	-12.0495
였네	-12.0497
▁일반	-12.0498
▁이성이	-12.0498
▁떠나야겠	-12.0517
안나	-12.0519
어버리	-12.0527
사람과	-12.0534
줄래	-12.054
▁조급하	-12.0542
물어가	-12.0555
실망	-12.0558
▁이해해줄	-12.0612
신을	-12.064
아물어	-12.064
담하	-12.0648
싫으	-12.0651
▁만납	-12.0657
만족하	-12.0685
▁멋있는	-12.0694
▁오락가락하	-12.0695
드는데	-12.0706
▁인정해야할	-12.0706
자는	-12.0712
간에	-12.0717
▁맞는건	-12.0718
좋지	-12.0727
▁올거	-12.0758
제길	-12.0759
▁집착인	-12.0762
▁냉정	-12.077
▁바람난거	-12.0789
틀어	-12.0792
▁우선이	-12.0798
▁않음	-12.0803
무덤덤해	-12.0809
▁자게	-12.0809
가나쁜건지	-12.0818
▁평가해	-12.0818
▁우는	-12.0824
▁낫네	-12.0828
▁친구들과	-12.0831
▁미치네	-12.0838
▁돌리고	-12.0844
▁온거	-12.0847
아쉽지	-12.085
▁여행가는	-12.0851
▁이해할	-12.0852
▁불편하	-12.0861
▁생각나기	-12.0867
▁불면증인가	-12.087
▁보내왔	-12.0871
▁맞은	-12.0872
▁못하겠네	-12.0877
▁보내버렸	-12.0902
▁일년같	-12.0916
거지같이	-12.0926
아쉽	-12.0962
하겠	-12.097
▁주기	-12.0974
▁발전하	-12.0978
중에	-12.098
▁돌아가면	-12.0984
▁제자리걸음이	-12.0998
드는	-12.1
▁자만	-12.1027
▁예뻐졌	-12.103
▁도네	-12.1034
▁망설여지는	-12.1105
▁복잡하네	-12.1105
▁받으려	-12.1107
▁끝내야	-12.1112
산책하	-12.1141
▁못잊	-12.1156
▁취직하고	-12.1159
▁잊어주	-12.1165
▁다가가야	-12.1173
▁내꺼	-12.1208
자만	-12.1209
▁사내에	-12.1236
않아	-12.1243
▁싫어졌	-12.1255
가져	-12.127
▁있을게	-12.1308
▁두려워지	-12.1313
▁학생이	-12.1314
▁지속	-12.1315
다더니	-12.1334
다니면	-12.1347
째인데	-12.1352
▁밀당해	-12.1354
▁뭘해야	-12.1355
좋을	-12.1366
▁싶으	-12.1368
네ᄒ	-12.1372
셨을	-12.1414
해지는	-12.1418
후회되	-12.1423
▁단거	-12.1423
었음	-12.1431
말이	-12.1483
▁연락하고싶	-12.1494
▁올랐	-12.1503
어졌어	-12.1508
낸	-12.1508
▁보내려	-12.151
있으	-12.1524
거래	-12.1525
짝사랑일	-12.1528
▁관리해	-12.1535
▁인정해	-12.154
▁스킨십하고	-12.156
▁동거해도	-12.1591
잡	-12.1593
봐야	-12.1597
보려고	-12.1597
▁물가	-12.1602
▁욕하	-12.161
▁사귀다	-12.1612
▁되었다	-12.1614
▁쓴다	-12.1618
▁단톡방	-12.1623
맞는다면	-12.1634
▁되셨	-12.1648
의해	-12.1707
였다	-12.1707
▁싫어하	-12.1726
▁저장	-12.1731
시간동안	-12.1733
▁그렇다는	-12.1735
▁시간이었겠	-12.1748
히나	-12.1758
▁맞았네	-12.1782
▁리액션해	-12.1796
같은데	-12.1805
같았	-12.1818
▁힘들어도	-12.183
▁구하	-12.1837
끌리	-12.1849
▁여자사람	-12.1858
▁부담되	-12.1869
기니	-12.1872
▁잊었는	-12.1873
▁철벽	-12.1888
했겠	-12.1895
번에	-12.1898
부탁드려	-12.1908
▁병신인	-12.1914
▁되었어	-12.1928
힘들어	-12.1929
▁무덤덤	-12.1945
느	-12.1956
▁길다	-12.1983
▁보내야	-12.2003
연애인데	-12.2052
▁변했	-12.2053
▁생각했나	-12.2061
▁사람일까	-12.2076
오는데	-12.2078
▁날도	-12.2084
▁답답한가	-12.2102
중인	-12.2123
떠나려	-12.2125
▁연애하	-12.2137
돼요	-12.2139
▁더럽	-12.2164
▁초대해	-12.2181
▁지우지	-12.2203
이였	-12.2218
▁찾아가보	-12.2228
익숙함	-12.2249
▁붙잡아보	-12.2314
힘들겠어	-12.2314
▁날이에	-12.233
▁연애상담해	-12.2331
사귀면서	-12.2372
▁선에	-12.2394
랐	-12.24
▁연락하고싶어	-12.2404
▁알아요	-12.2409
▁데이트하	-12.2421
▁지하철	-12.2457
▁타야	-12.2457
▁꽝	-12.2464
▁가야겠	-12.2474
는다는건	-12.2474
갔	-12.2491
아질	-12.2492
나고	-12.2499
알바	-12.2519
상했	-12.2535
해야하는	-12.2543
▁돋	-12.2555
당히	-12.2565
해봐	-12.2566
실수하	-12.2567
것이	-12.259
▁남았나	-12.2599
한듯	-12.2616
듯해	-12.262
▁간사	-12.2623
주신	-12.2633
행복했	-12.2633
렸을까	-12.2642
단순하	-12.2648
▁직장인	-12.2679
덤덤해지는	-12.2684
▁쓰이겠	-12.2703
▁잘하	-12.2712
헤어져야하는	-12.2721
▁그렇다	-12.2732
▁참아야	-12.2734
▁두려운	-12.2735
▁들어보	-12.2739
▁미쳐	-12.2793
말해	-12.2809
다면서	-12.2809
준비하는	-12.2823
이해해주	-12.2834
▁어색	-12.2837
여행이	-12.2843
힘드네	-12.2846
된걸까	-12.2867
▁갔을	-12.2871
▁올려달	-12.288
켜	-12.2886
일에	-12.2888
어야지	-12.2912
▁진심인	-12.2922
독한	-12.2927
▁안고	-12.2931
소극적	-12.296
을수	-12.296
▁든	-12.2977
▁즐	-12.3005
졌나봐	-12.3007
고픈	-12.3012
그대로인	-12.303
▁다치	-12.3035
▁싸웠는	-12.3062
▁수준이	-12.3064
초대하	-12.3066
면서도	-12.3072
해보	-12.3075
▁나나봐	-12.3082
떠	-12.3087
모르	-12.3103
녀한테	-12.3104
생	-12.3144
▁이사하	-12.3149
해가는	-12.3152
내는	-12.3156
해주면	-12.3157
▁휴학하	-12.3159
▁흘	-12.3184
모르겠어	-12.3192
▁끝인거	-12.3197
복잡	-12.3198
▁내면	-12.3199
해보시는	-12.3221
해야겠네	-12.3246
▁갠톡하	-12.3246
졌다	-12.3254
본지	-12.3266
▁저음	-12.3298
▁끊기는	-12.3298
좋겠다	-12.33
한가봐	-12.3301
▁힘내라	-12.331
▁미안해하	-12.332
▁벗으	-12.3323
▁마음속에	-12.3353
▁전화해	-12.3374
한가	-12.3391
그러다	-12.3397
▁걱정해	-12.3398
▁변명이	-12.3398
▁반복될	-12.3401
당했	-12.341
▁나아졌다	-12.3411
▁어색할	-12.3422
잊혀지	-12.3423
▁쓸쓸	-12.3432
못하고	-12.3436
▁힘들기	-12.3438
▁창업해	-12.3453
해진	-12.3458
▁천일	-12.3482
▁백업	-12.3494
▁전화하면	-12.3496
짰다	-12.3497
▁묻어두	-12.3536
▁알게되	-12.3554
굴	-12.357
▁청춘	-12.3577
타면	-12.358
▁결혼할까	-12.3583
▁궁금한게	-12.3598
왔	-12.3607
막	-12.361
떨	-12.3616
▁있는건	-12.3623
났	-12.3633
가네	-12.3643
▁부럽네	-12.3645
강요하는	-12.3646
▁갑작스	-12.3657
▁아끼	-12.3657
크리스마스	-12.3662
잘했	-12.3663
가능할	-12.3667
▁데이	-12.3687
려서	-12.3689
▁달째	-12.3693
▁난다	-12.3697
▁갈거	-12.3698
▁네달	-12.3699
▁필요한가	-12.3708
알았는데	-12.3711
▁잊혀	-12.3716
▁사랑이었을	-12.3716
▁가져봐	-12.3724
▁안난다	-12.3728
▁만났네	-12.3736
든든	-12.3736
은것만	-12.3737
▁먹으니	-12.3744
나갔으면	-12.3747
빠	-12.3753
좋아해	-12.3765
▁그런거	-12.3774
짝남한테	-12.3775
▁계속해	-12.3777
▁잊은	-12.3779
▁인사해	-12.3783
▁딸	-12.3803
러가	-12.3811
▁끝이라	-12.3813
둬	-12.383
▁재미있을	-12.3832
해주세	-12.3837
▁덤덤	-12.3847
써	-12.3851
▁선택하	-12.3854
▁이시간	-12.3861
▁필요하다	-12.3864
펴	-12.3866
어주지	-12.3882
움에	-12.3882
았나	-12.3889
▁농구	-12.3895
났나봐	-12.3896
▁헌신	-12.3912
관리하	-12.3913
▁말해줄	-12.3916
▁없애야	-12.3919
▁못생	-12.3928
▁친구같	-12.3931
상황	-12.3946
▁못가	-12.3949
벽	-12.3952
수고	-12.3985
앞에	-12.3993
타일러	-12.3995
▁깨어	-12.4018
내보세요	-12.403
안부	-12.4045
▁얘기하	-12.4051
▁소개팅이	-12.4052
▁출근이	-12.4065
은걸까	-12.4072
운명같	-12.4076
주라	-12.4077
말아	-12.4084
창이	-12.4085
힘들었	-12.4089
해준	-12.4108
▁줄어	-12.4115
헤어졌습니다	-12.4118
느낌	-12.4126
▁가봐	-12.4128
는대로	-12.4142
야하는	-12.4145
▁집착인가	-12.4149
▁동거하는	-12.4158
사니	-12.4166
▁해봤어	-12.4189
▁꿈에나	-12.42
장난	-12.4211
어리	-12.4251
대하면	-12.4258
밀	-12.4261
▁받을까	-12.4266
친구라	-12.4273
이뤄	-12.4276
진지한	-12.4278
놀아	-12.4281
해야할	-12.4291
▁방법이겠	-12.4294
▁놓아보	-12.4295
▁무기력하	-12.4297
▁요가	-12.43
드디어	-12.43
평	-12.4302
시험	-12.4302
나갈까	-12.4305
위해	-12.4306
▁느끼	-12.4309
▁않을거	-12.431
과일	-12.4311
않았	-12.4312
브	-12.4318
▁다되가는	-12.4319
적당	-12.4327
교	-12.433
겼나봐	-12.434
▁훈훈	-12.4341
귀찮	-12.4343
일기	-12.4349
약속	-12.4351
▁잡혀	-12.4357
공개	-12.4363
드나	-12.4366
보수적이	-12.4367
효	-12.4376
상관	-12.4377
불안하	-12.4383
찾기	-12.4388
핑	-12.4399
▁일어나보	-12.44
견해	-12.4401
덕	-12.4402
▁시켜야	-12.4403
듣	-12.4417
벗어	-12.4418
▁공허함	-12.4421
듬	-12.4427
▁무뎌	-12.4431
흔들	-12.4434
지켜	-12.4436
가능한	-12.444
등	-12.4441
시겠	-12.4443
차리	-12.4443
했었	-12.4454
춘	-12.4457
있니	-12.446
찾아보	-12.4465
오빠	-12.4467
첫	-12.447
▁않으	-12.4472
같다가도	-12.4475
미쳤	-12.4476
현상	-12.4476
짜증나	-12.4479
쓰레기	-12.4479
가능성	-12.4481
꼼꼼	-12.4484
달에	-12.4487
마시	-12.4489
▁후폭풍인가	-12.4492
▁덧	-12.4494
질까	-12.45
귀찮아	-12.4501
지나갈	-12.4503
않으니	-12.4506
미세먼지	-12.4508
새벽	-12.4514
여자친구와	-12.4515
쳤	-12.4516
▁공허	-12.4518
르지	-12.4522
안되는	-12.4527
세월	-12.4536
흘렀네	-12.4537
데려다	-12.4538
깊	-12.4538
연락하고	-12.454
한잔	-12.4541
얘기	-12.4541
▁사귀지	-12.4542
▁죽었나	-12.4544
▁술마	-12.4545
▁잡으려	-12.4545
상관없	-12.4547
큼	-12.4549
끊었	-12.4549
됐네	-12.4549
▁멀었나	-12.4553
친구사이	-12.4557
없애	-12.4559
권태기	-12.4561
섭섭	-12.4563
낀	-12.4564
졸	-12.4564
갔는데	-12.4575
▁현실에	-12.4576
이기적이	-12.4577
▁보듬어	-12.4579
▁잊어보려	-12.458
희망	-12.458
놓아줄	-12.4581
잇	-12.4581
깔	-12.4583
꾹	-12.4583
그랬	-12.4585
려질	-12.4586
변	-12.4586
드라마	-12.4587
불러	-12.4587
워질거	-12.4591
깜	-12.4591
▁될거	-12.4594
▁잤나	-12.4594
철벽이	-12.4596
악	-12.4599
▁못내	-12.4601
좋아해주는	-12.4608
마주치	-12.4608
아졌어	-12.4609
만나기로	-12.4609
그리워지	-12.461
떨어져	-12.4611
이런건	-12.4615
힘든가봅니다	-12.4617
헤어졌네	-12.4618
힘듭니다	-12.4619
▁얼었나	-12.4621
성적	-12.4622
쥐	-12.4622
만났	-12.4624
▁얘기할	-12.4624
▁나에	-12.4625
멈추	-12.4626
서운한	-12.4626
알아보	-12.4627
정이야	-12.4629
공허	-12.4629
조심스	-12.4634
살아야	-12.4635
있으신가	-12.4635
소식	-12.4637
셔야죠	-12.4637
7	-12.4638
멋	-12.464
묻어두는	-12.4641
회복	-12.4642
▁났나	-12.4643
▁너덜너덜	-12.4644
편할	-12.4644
않네	-12.4645
존	-12.4646
바꾸	-12.4647
지났네	-12.4653
칼	-12.4653
소개	-12.4654
표현해	-12.4654
8	-12.4656
쐬	-12.4656
끝난	-12.4658
▁비비	-12.466
잊기	-12.466
머릿속	-12.4661
▁괜찮았	-12.4664
▁데려다주	-12.4666
쳤나	-12.4667
오락가락하	-12.4671
▁곁	-12.4675
괴로	-12.4678
이루어	-12.4679
정류장	-12.4682
우울해	-12.4686
쁘더라	-12.4687
두번	-12.4687
나아졌	-12.4687
후유증이	-12.4688
잤어	-12.4691
착각이	-12.4691
떠나보내	-12.4692
홀	-12.4693
두려운	-12.4694
싫은	-12.4695
명절	-12.4696
취직	-12.4699
바람둥이	-12.4701
없을까	-12.4701
포기해야	-12.4701
탔	-12.4701
길거리에	-12.4701
구멍이	-12.4702
귀찮은	-12.4703
새출발	-12.4703
쓴	-12.4704
답답할	-12.4705
환장	-12.4705
넌	-12.4706
상태	-12.4706
직구	-12.4706
되셨	-12.4706
부담스러울	-12.4707
익숙해질	-12.4708
멀리	-12.4709
무뎌지는	-12.4709
의심하지	-12.4709
익숙해져	-12.4709
휴유증	-12.471
피시방	-12.471
힘드셨	-12.471
구분	-12.4711
기울이	-12.4711
아련하	-12.4711
노력해	-12.4711
좋지만	-12.4712
점심시간에	-12.4712
당했습니다	-12.4713
▁많았겠	-12.4714
프라이버시	-12.4715
어려울	-12.4715
빠져	-12.4716
무거워	-12.4717
외국어	-12.4717
싱숭생숭하	-12.4719
낮술	-12.4719
나가나	-12.4719
참견	-12.4721
깨달았	-12.4722
베	-12.4722
표정	-12.4722
한마디	-12.4723
도대체	-12.4724
월요일	-12.4725
넘었는데	-12.4725
선물해주	-12.4726
불쌍	-12.4726
친절한	-12.4728
별로	-12.4728
비싼	-12.4728
불공평	-12.4728
비밀연애	-12.4729
축복	-12.4729
잊고싶	-12.4731
최근	-12.4732
억울	-12.4732
반가워요	-12.4732
허전함	-12.4733
결혼준비	-12.4733
치킨	-12.4735
주말에	-12.4735
공간	-12.4735
여러명	-12.4736
괜찮다면	-12.4736
필름	-12.4736
객관적	-12.4737
훔쳐보	-12.4737
▁있었겠	-12.4738
프로필	-12.4738
무언가	-12.4738
그리울	-12.4738
나쁜놈	-12.4739
술한잔	-12.4739
슬픔	-12.4739
답답해서	-12.4742
쌩얼	-12.4744
익숙해지지	-12.4744
자장가	-12.4744
다툼	-12.4744
가늠	-12.4745
평온	-12.4745
주택	-12.4747
예감	-12.4747
씁쓸	-12.4748
성형	-12.4748
착잡하	-12.4749
닮아	-12.4749
꼈어	-12.4749
있더라	-12.475
혼술	-12.4751
표현하기	-12.4752
넓	-12.4752
부모	-12.4753
차례	-12.4753
시급	-12.4753
뒷	-12.4755
옳	-12.4756
썩	-12.4758
삐	-12.4774
밑	-12.4777
찼	-12.4778
낳	-12.4779
흔	-12.4783
냉	-12.4786
밟	-12.4788
흠	-12.479
떼	-12.479
쭉	-12.479
쫄	-12.4794
쿨	-12.4803
농	-12.4811
몰	-12.4827
람	-12.5083
흘	-12.5107
벼	-12.5229
긋	-12.5247
쁠	-12.5275
봇	-12.5289
엉	-12.5295
쁘	-12.5298
혹	-12.5302
립	-12.5312
련	-12.5314
꼈	-12.5318
혔	-12.5319
딛	-12.532
렀	-12.5321
쩔	-12.5323
램	-12.5324
맙	-12.5325
듭	-12.5327
황	-12.5328
닿	-12.5329
빴	-12.5331
낭	-12.5331
컥	-12.5332
깝	-12.5332
춤	-12.5335
콤	-12.5335
톱	-12.5336
댄	-12.5336
턴	-12.5337
뜰	-12.5337
칭	-12.5337
긍	-12.5337
욜	-12.5337
몽	-12.5338
졋	-12.5338
겉	-12.5338
묵	-12.5338
률	-12.5338
익	-12.5338
딜	-12.5338
냄	-12.5338
딘	-12.5338
쎄	-12.5338
령	-12.5338
첩	-12.5338
콘	-12.5338
팍	-12.5338
퓨	-12.5338
쓰	-12.8289
쪘	-13.8859
짬	-13.886
젊	-13.8861
옮	-13.8862
얇	-13.8863
씸	-13.8864
씰	-13.8865
썰	-13.8866
숏	-13.8867
섰	-13.8868
섣	-13.8869
섞	-13.887
샐	-13.8871
뽕	-13.8872
뺏	-13.8873
볕	-13.8874
륜	-13.8875
띵	-13.8876
덮	-13.8877
댔	-13.8878
논	-13.8879
꼴	-13.888
깼	-13.8881
깬	-13.8882
괘	-13.8883
겜	-13.8884
o	-13.8885
g	-13.8886
홧	-13.8887
홈	-13.8888
헹	-13.8889
헐	-13.889
텅	-13.8891
텀	-13.8892
턱	-13.8893
쿵	-13.8894
측	-13.8895
짼	-13.8896
엿	-13.8897
엊	-13.8898
얽	-13.8899
앱	-13.89
숫	-13.8901
묘	-13.8902
몬	-13.8903
렐	-13.8904
랙	-13.8905
랖	-13.8906
뜬	-13.8907
떴	-13.8908
됬	-13.8909
눕	-13.891
눌	-13.8911
꿰	-13.8912
꽝	-13.8913
깰	-13.8914
갱	-13.8915
훔	-13.8916
핫	-13.8917
텁	-13.8918
컸	-13.8919
촬	-13.892
총	-13.8921
짰	-13.8922
좌	-13.8923
웹	-13.8924
밉	-13.8925
몫	-13.8926
멘	-13.8927
맺	-13.8928
맴	-13.8929
릇	-13.893
뚫	-13.8931
넷	-13.8932
꽉	-13.8933
꼰	-13.8934
겪	-13.8935
갠	-13.8936
C	-13.8937
헌	-13.8938
폼	-13.8939
팠	-13.894
팀	-13.8941
탓	-13.8942
켰	-13.8943
왠	-13.8944
엮	-13.8945
씌	-13.8946
쏠	-13.8947
쏟	-13.8948
쁨	-13.8949
볍	-13.895
렜	-13.8951
렛	-13.8952
긁	-13.8953
흑	-13.8954
헥	-13.8955
틋	-13.8956
툼	-13.8957
퀴	-13.8958
찜	-13.8959
젯	-13.896
썹	-13.8961
쌍	-13.8962
슈	-13.8963
쉴	-13.8964
묻	-13.8965
릎	-13.8966
롤	-13.8967
둠	-13.8968
돋	-13.8969
늠	-13.897
낚	-13.8971
곱	-13.8972
휘	-13.8973
툴	-13.8974
켠	-13.8975
징	-13.8976
쌩	-13.8977
싼	-13.8978
낙	-13.8979
끓	-13.898
객	-13.8981
훈	-13.8982
짱	-13.8983
젖	-13.8984
웬	-13.8985
얻	-13.8986
씁	-13.8987
섬	-13.8988
뽀	-13.8989
뢰	-13.899
렬	-13.8991
땡	-13.8992
늙	-13.8993
낄	-13.8994
찔	-13.8995
띄	-13.8996
닮	-13.8997
검	-13.8998
앉	-13.8999
샤	-13.9
벚	-13.9001
맡	-13.9002
뤄	-13.9003
랫	-13.9004
딪	-13.9005
겹	-13.9006
헬	-13.9007
잃	-13.9008
옥	-13.9009
빡	-13.901
밝	-13.9011
렘	-13.9012
깎	-13.9013
곁	-13.9014
n	-13.9015
컴	-13.9016
뛰	-13.9017
넣	-13.9018
낮	-13.9019
규	-13.902
걔	-13.9021
씹	-13.9022
렌	-13.9023
닫	-13.9024
썼	-13.9025
슷	-13.9026
딸	-13.9027
꼼	-13.9028
귈	-13.9029
잤	-13.903
뉴	-13.9031
뀔	-13.9032
웨	-13.9033
녁	-13.9034
뀌	-13.9035
깍	-13.9036
N	-13.9037
획	-13.9038
텨	-13.9039
셀	-13.904
됩	-13.9041
눠	-13.9042
걷	-13.9043
엽	-13.9044
샀	-13.9045
삭	-13.9046
쌓	-13.9047
싱	-13.9048
멈	-13.9049
권	-13.905
희	-13.9051
밍	-13.9052
꿔	-13.9053
틱	-13.9054
북	-13.9055
쇼	-13.9056
섭	-13.9057
끄	-13.9058
벗	-13.9059
숭	-13.906
헷	-13.9061
잖	-13.9062
읽	-13.9063
낫	-13.9064
뎌	-13.9065
멀	-13.9066
렵	-13.9067
득	-13.9068
녕	-13.9069
깐	-13.907
엇	-13.9071
빌	-13.9072
흐	-13.9073
끊	-13.9074
괴	-13.9075
퇴	-13.9076
승	-13.9077
랜	-13.9078
밌	-13.9079
덤	-13.908
픔	-13.9081
핸	-13.9082
똑	-13.9083
풍	-13.9084
슴	-13.9085
뭔	-13.9086
뻐	-13.9087
씀	-13.9088
닐	-13.9089
0	-13.909
풀	-13.9091
챙	-13.9092
죽	-13.9093
험	-13.9094
격	-13.9095
엄	-13.9096
럼	-13.9097
떤	-13.9098
슨	-13.9099
걱	-13.91
겼	-13.9101
택	-13.9102
닌	-13.9103
접	-13.9104
랄	-13.9105
봅	-13.9106
럴	-13.9107
억	-13.9108
떻	-13.9109
렇	-13.911
졌	-13.9111
찮	-13.9112
받	-13.9113
습	-13.9114
혼	-13.9115
헤	-13.9116
않	-13.9117
싶	-13.9118
없	-13.9119
